<unk>	0
<s>	0
</s>	0
""	-0
..	-1
▁"	-2
▁""	-3
...	-4
종합	-5
▁'	-6
▁"[	-7
]"	-8
▁이	-9
▁[	-10
▁"'	-11
)"	-12
"""	-13
▁사	-14
▁김	-15
▁아	-16
""...	-17
▁"""	-18
단독	-19
▁결	-20
▁“	-21
▁1	-22
▁‘	-23
▁공	-24
▁전	-25
▁연	-26
▁고	-27
논란	-28
▁결혼	-29
▁박	-30
TV	-31
▁(	-32
Oh	-33
▁부	-34
▁한	-35
▁유	-36
▁논란	-37
▁정	-38
▁인	-39
▁2	-40
▁대	-41
▁시	-42
공식	-43
'"	-44
전문	-45
▁오	-46
이슈	-47
▁열	-48
▁최	-49
▁가	-50
▁공개	-51
▁만	-52
▁측	-53
""..	-54
]""	-55
▁성	-56
▁남	-57
▁안	-58
▁조	-59
▁여	-60
▁폭	-61
▁지	-62
▁하	-63
▁이슈	-64
""...'	-65
▁의	-66
▁기	-67
▁마	-68
""(	-69
까지	-70
▁출	-71
▁비	-72
터뷰	-73
▁소	-74
▁열애	-75
▁중	-76
SC	-77
▁후	-78
▁미	-79
""[	-80
▁다	-81
▁예	-82
▁장	-83
▁신	-84
입장	-85
...""	-86
▁"‘	-87
]'	-88
▁강	-89
▁해	-90
▁없	-91
▁수	-92
▁감	-93
▁나	-94
인터뷰	-95
▁것	-96
눈물	-97
▁일	-98
▁불	-99
으로	-100
▁반	-101
▁자	-102
혼자	-103
2'	-104
▁첫	-105
)[	-106
▁진	-107
▁선	-108
▁재	-109
”"	-110
▁구	-111
▁발	-112
▁입	-113
▁동	-114
▁제	-115
▁등	-116
▁고백	-117
▁내	-118
▁모	-119
리뷰	-120
었다	-121
▁피	-122
▁보	-123
▁위	-124
▁3	-125
▁방	-126
▁딸	-127
공식입장	-128
▁무	-129
▁눈물	-130
배우	-131
▁주	-132
vs	-133
▁서	-134
산다	-135
▁살	-136
▁스	-137
▁추	-138
▁4	-139
▁임	-140
▁송	-141
혜선	-142
▁있	-143
▁현	-144
',	-145
▁홍	-146
▁#	-147
나혼자	-148
▁이유	-149
...'	-150
▁생	-151
했다	-152
▁손	-153
식당	-154
▁사과	-155
▁이혼	-156
kg	-157
▁알	-158
in	-159
▁그	-160
▁관	-161
▁포	-162
승리	-163
▁사랑	-164
▁10	-165
▁5	-166
▁영	-167
▁의혹	-168
▁폭로	-169
ing	-170
▁백	-171
NO	-172
혜진	-173
사랑	-174
▁행	-175
결혼	-176
▁매	-177
▁변	-178
▁도	-179
▁차	-180
▁속	-181
▁함	-182
▁화	-183
부터	-184
▁경	-185
▁분	-186
▁아들	-187
스타	-188
▁아이	-189
▁확	-190
았다	-191
응원	-192
친구	-193
재현	-194
▁우	-195
▁♥	-196
..""	-197
우새	-198
미우새	-199
▁오늘	-200
혐의	-201
개월	-202
▁상	-203
아이	-204
▁복	-205
▁거	-206
▁어	-207
종원	-208
▁실	-209
▁심	-210
▁데	-211
DA	-212
▁파	-213
PO	-214
POP	-215
속사	-216
에서	-217
준영	-218
▁못	-219
골목	-220
▁등장	-221
""..'	-222
▁돌	-223
▁윤	-224
▁양	-225
하나	-226
▁새	-227
년만	-228
골목식당	-229
충격	-230
▁레	-231
폭행	-232
▁노	-233
▁때	-234
▁남편	-235
연애	-236
▁달	-237
▁말	-238
▁커	-239
▁맛	-240
악플	-241
▁설	-242
▁6	-243
혜교	-244
▁출연	-245
예진	-246
이트	-247
▁부부	-248
▁NO	-249
엄마	-250
00	-251
현무	-252
▁사진	-253
▁죄	-254
▁축	-255
▁애	-256
▁바	-257
▁않	-258
▁방송	-259
▁누	-260
니다	-261
▁시작	-262
나혼자산다	-263
▁집	-264
▁"“	-265
▁사실	-266
미스	-267
▁문	-268
▁당	-269
▁피해	-270
하라	-271
▁밝	-272
♥'	-273
이상	-274
아내	-275
▁혐의	-276
'[	-277
▁투	-278
▁응원	-279
'(	-280
▁연예	-281
▁끝	-282
▁언	-283
▁배	-284
▁인정	-285
▁팬	-286
▁잘	-287
에도	-288
▁사망	-289
▁계	-290
프로	-291
▁몰	-292
▁황	-293
▁개	-294
▁만에	-295
지만	-296
에게	-297
”...	-298
▁초	-299
▁아내	-300
▁음	-301
건모	-302
▁드	-303
▁열애설	-304
▁근	-305
▁맞	-306
▁임신	-307
동상	-308
▁완	-309
▁[★	-310
스트	-311
▁합	-312
▁더	-313
▁원	-314
▁호	-315
01	-316
▁하차	-317
하는	-318
구혜선	-319
▁해명	-320
▁백종원	-321
▁향	-322
이크	-323
이어	-324
▁참	-325
하고	-326
▁같	-327
활동	-328
▁직	-329
▁세	-330
촬영	-331
겠다	-332
▁""'	-333
▁함께	-334
▁7	-335
▁이상	-336
깜짝	-337
▁"[★	-338
▁또	-339
▁청	-340
▁근황	-341
▁받	-342
▁종	-343
▁복귀	-344
▁배우	-345
SN	-346
▁결별	-347
▁아냐	-348
소년	-349
SNS	-350
연예	-351
▁죄송	-352
현장	-353
법적	-354
▁건	-355
..'	-356
▁두	-357
▁故	-358
이몽	-359
참시	-360
전참시	-361
동상이몽	-362
··	-363
▁커플	-364
▁좋	-365
▁물	-366
소년단	-367
한혜진	-368
탄소년단	-369
PD	-370
어저	-371
어저께	-372
중기	-373
캐슬	-374
3'	-375
▁왜	-376
ft	-377
▁통	-378
진영	-379
컴백	-380
▁할	-381
자친구	-382
▁탄	-383
와이	-384
유천	-385
남편	-386
▁키	-387
▁혼자	-388
▁가족	-389
공개	-390
▁교	-391
▁탈	-392
▁8	-393
▁레터	-394
해인	-395
지민	-396
▁싶	-397
BS	-398
’"	-399
이어트	-400
ie	-401
▁먹	-402
iew	-403
TView	-404
▁행복	-405
연애의	-406
라이	-407
소속사	-408
▁몸	-409
▁산다	-410
▁승리	-411
나래	-412
▁특	-413
▁떠	-414
?"	-415
▁향한	-416
▁없다	-417
▁별	-418
방송	-419
→'	-420
미스터	-421
▁감량	-422
'...	-423
정준영	-424
나라	-425
열애	-426
▁얼	-427
▁요	-428
▁부인	-429
▁심경	-430
SK	-431
SKY	-432
지는	-433
YG	-434
▁9	-435
▁악플	-436
▁취	-437
니저	-438
▁촬영	-439
하게	-440
추행	-441
▁감사	-442
▁연기	-443
▁깜짝	-444
너무	-445
효리	-446
송혜교	-447
운전	-448
▁극	-449
▁연애	-450
▁미모	-451
▁발표	-452
안재현	-453
▁성공	-454
▁단	-455
▁작	-456
84	-457
아내의	-458
▁사람	-459
▁탄생	-460
병헌	-461
▁출산	-462
멤버	-463
사고	-464
▁카	-465
▁축하	-466
▁외	-467
▁귀	-468
▁죽	-469
▁태	-470
지막	-471
▁편	-472
▁컴백	-473
▁회	-474
OT	-475
생활	-476
▁민	-477
세요	-478
▁위해	-479
경찰	-480
▁분노	-481
HOT	-482
▁증	-483
소원	-484
SHOT	-485
이크로	-486
이크로닷	-487
▁솔	-488
현아	-489
▁vs	-490
▁앞	-491
대상	-492
▁엄마	-493
임신	-494
▁20	-495
아는	-496
SS	-497
됐다	-498
▁적	-499
▁역	-500
이나	-501
10	-502
▁눈	-503
▁많	-504
▁둘	-505
민정	-506
▁연하	-507
▁데뷔	-508
▁충격	-509
▁출신	-510
”(	-511
...“	-512
▁넘	-513
→""	-514
▁치	-515
▁울	-516
▁無	-517
엔딩	-518
디오	-519
사부	-520
이혼	-521
▁게	-522
수지	-523
▁준	-524
▁M	-525
다니	-526
사실	-527
어요	-528
▁허	-529
▁리	-530
▁로	-531
▁간	-532
▁전현무	-533
폭풍	-534
▁밝힌	-535
▁최고	-536
▁운	-537
라마	-538
▁목	-539
1]	-540
버닝	-541
▁관심	-542
대응	-543
▁데이트	-544
▁찾	-545
재석	-546
▁경찰	-547
▁없어	-548
설리	-549
▁A	-550
▁되	-551
만원	-552
▁한혜진	-553
▁예고	-554
▁된	-555
▁필	-556
한다	-557
!]"	-558
하다	-559
구하라	-560
▁국	-561
쏟아	-562
초점	-563
▁걸	-564
▁명	-565
서준	-566
▁저	-567
살림	-568
▁언급	-569
▁부모	-570
준호	-571
사과	-572
만에	-573
▁폭발	-574
마약	-575
간밤	-576
▁판	-577
▁활동	-578
▁재회	-579
할까	-580
인생	-581
▁사기	-582
▁처	-583
▁결혼식	-584
현석	-585
영자	-586
▁입장	-587
계약	-588
▁아닌	-589
▁채	-590
▁매니저	-591
났다	-592
태현	-593
▁확인	-594
살림남	-595
년만에	-596
▁소속사	-597
우리	-598
▁퇴	-599
▁성폭행	-600
하늘	-601
▁은	-602
▁돌아	-603
▁연인	-604
▁없는	-605
오늘	-606
▁만나	-607
▁달라	-608
뿐인	-609
▁과	-610
▁잡	-611
머니	-612
▁다이어트	-613
▁인생	-614
▁현빈	-615
스토	-616
▁이어	-617
샤인	-618
▁얼굴	-619
무근	-620
▁본	-621
▁음주	-622
▁들	-623
삭제	-624
▁母	-625
션샤인	-626
보라	-627
▁마지막	-628
▁날	-629
전현무	-630
▁폭행	-631
▁사이	-632
버닝썬	-633
▁PD	-634
▁품	-635
브라	-636
▁친	-637
▁11	-638
▁신혼	-639
▁조사	-640
▁프	-641
▁예능	-642
▁대표	-643
▁패	-644
집사부	-645
▁직접	-646
아들	-647
▁정준영	-648
▁김태	-649
하나뿐인	-650
▁전문	-651
협박	-652
▁일상	-653
▁몸매	-654
손예진	-655
졌다	-656
▁변신	-657
루머	-658
▁힘	-659
▁김건모	-660
▁구혜선	-661
시언	-662
▁포착	-663
▁고소	-664
▁진심	-665
BC	-666
핑크	-667
▁절	-668
▁멤버	-669
선영	-670
시간	-671
다니엘	-672
김태	-673
▁다시	-674
유진	-675
해시	-676
▁발언	-677
▁美	-678
▁손예진	-679
에이	-680
전일	-681
▁법적	-682
김건모	-683
민영	-684
일체	-685
보다	-686
▁12	-687
집사부일체	-688
▁타	-689
▁류	-690
▁피해자	-691
▁안재현	-692
태그	-693
▁여행	-694
주얼	-695
현우	-696
나영	-697
[★	-698
▁용	-699
▁번	-700
해시태그	-701
화보	-702
▁이별	-703
▁최종	-704
▁체	-705
▁인증	-706
▁아빠	-707
라스	-708
책임	-709
야화	-710
전일야화	-711
201	-712
첫방	-713
▁뒤	-714
보검	-715
수종	-716
▁취소	-717
▁등극	-718
▁독	-719
▁웃	-720
윤정	-721
종국	-722
사랑의	-723
▁프로	-724
사진	-725
▁생각	-726
▁될	-727
▁확정	-728
▁구속	-729
▁시청	-730
▁올	-731
(2	-732
▁무대	-733
▁주장	-734
▁키스	-735
여행	-736
민기	-737
렸다	-738
▁아나	-739
종현	-740
성훈	-741
진화	-742
방탄소년단	-743
클럽	-744
쏟아지는	-745
▁마약	-746
예쁜	-747
▁위기	-748
▁둘째	-749
▁함소원	-750
▁악	-751
백종원	-752
▁코	-753
▁형	-754
▁송혜교	-755
▁대응	-756
▁중단	-757
없는	-758
▁父	-759
▁친구	-760
하지	-761
▁검	-762
라인	-763
정아	-764
▁최초	-765
해투	-766
한밤	-767
▁갈	-768
▁박나래	-769
는데	-770
강남	-771
▁기안	-772
▁결국	-773
▁메	-774
진실	-775
▁사건	-776
머리	-777
”..	-778
을까	-779
▁마음	-780
▁빠	-781
▁같은	-782
▁표	-783
▁산	-784
맨스	-785
송중기	-786
▁후폭풍	-787
▁인사	-788
···	-789
▁돈	-790
성폭행	-791
프듀	-792
20	-793
▁아니	-794
웨딩	-795
시착	-796
승기	-797
▁설리	-798
▁만남	-799
필모	-800
가족	-801
▁비주얼	-802
▁박유천	-803
▁큰	-804
▁욕	-805
라디오	-806
▁공식	-807
♥︎	-808
비서	-809
▁길	-810
영화	-811
정훈	-812
▁학	-813
▁동생	-814
수연	-815
▁반전	-816
▁알고	-817
▁있다	-818
▁합류	-819
(1	-820
슈돌	-821
▁케	-822
▁모두	-823
▁구하라	-824
호사	-825
버지	-826
둥이	-827
▁미안	-828
이라	-829
신영	-830
▁영상	-831
톡방	-832
으면	-833
”[	-834
▁준비	-835
▁논란에	-836
김비서	-837
▁팬들	-838
▁막	-839
▁입대	-840
▁송중기	-841
▁때문	-842
동건	-843
▁잠	-844
▁갑	-845
후의	-846
▁추가	-847
▁내편	-848
걱정	-849
▁반성	-850
2’	-851
도전	-852
▁인터뷰	-853
정해인	-854
▁루머	-855
▁권	-856
가왕	-857
▁결정	-858
위기	-859
▁'1	-860
합니다	-861
뉴스	-862
빅뱅	-863
▁물결	-864
불청	-865
▁모습	-866
▁韓	-867
▁SNS	-868
였다	-869
지영	-870
▁ing	-871
▁첫방	-872
▁너무	-873
▁션샤인	-874
▁놀	-875
우성	-876
명수	-877
▁잔	-878
최종	-879
▁현장	-880
▁불시착	-881
▁방탄소년단	-882
▁순	-883
왔다	-884
대로	-885
운서	-886
▁병	-887
슈퍼	-888
박유천	-889
▁이미	-890
▁감독	-891
▁생일	-892
▁도전	-893
▁매력	-894
년째	-895
▁박서준	-896
▁여자	-897
▁닮	-898
수미	-899
▁좋아	-900
▁사고	-901
최고	-902
SBS	-903
▁가수	-904
소연	-905
블랙	-906
준희	-907
효진	-908
KBS	-909
피해	-910
▁토	-911
전히	-912
면가왕	-913
▁눈물의	-914
▁애도	-915
▁천	-916
지혜	-917
MD	-918
수현	-919
▁폐	-920
▁누나	-921
▁삭제	-922
부부	-923
▁이병헌	-924
같이	-925
차이나	-926
▁줄	-927
▁투병	-928
복면가왕	-929
IS	-930
▁터	-931
▁기부	-932
▁됐다	-933
연예인	-934
▁피소	-935
고백	-936
▁장나라	-937
유미	-938
▁D	-939
▁건강	-940
▁은퇴	-941
▁골	-942
동생	-943
?""	-944
VS	-945
▁득	-946
▁평	-947
JY	-948
이상화	-949
▁트	-950
▁스타	-951
▁탈퇴	-952
수민	-953
마이크로닷	-954
▁한국	-955
레스	-956
조사	-957
관계	-958
남자친구	-959
▁이영자	-960
...‘	-961
▁녹	-962
▁씨	-963
스러	-964
프닝	-965
▁화제	-966
▁꿈	-967
▁日	-968
▁질	-969
지연	-970
비신	-971
▁가능	-972
예능	-973
▁계속	-974
게인	-975
▁누구	-976
▁`	-977
▁14	-978
김민	-979
▁남자	-980
▁아나운서	-981
▁음주운전	-982
▁진실	-983
서희	-984
▁中	-985
▁알았다	-986
▁따	-987
동백	-988
▁했	-989
가수	-990
무한	-991
▁염	-992
궁민	-993
▁휴	-994
접대	-995
▁성추행	-996
’,	-997
건강	-998
▁선택	-999
▁문제	-1000
▁삼	-1001
동백꽃	-1002
서트	-1003
콘서트	-1004
징역	-1005
▁유재석	-1006
거운	-1007
빚투	-1008
▁선언	-1009
▁폭풍	-1010
해진	-1011
▁드라마	-1012
아빠	-1013
▁선물	-1014
”...‘	-1015
▁저격	-1016
어게인	-1017
벤져	-1018
벤져스	-1019
▁계약	-1020
▁반박	-1021
프로듀	-1022
JYP	-1023
▁슬	-1024
▁파격	-1025
서수연	-1026
와이스	-1027
?...	-1028
▁예쁜	-1029
▁베	-1030
행복	-1031
▁대상	-1032
▁정해인	-1033
▁YG	-1034
▁시간	-1035
▁광	-1036
▁관계	-1037
결별	-1038
▁연예계	-1039
주년	-1040
로운	-1041
▁100	-1042
적인	-1043
▁러	-1044
이지	-1045
훈훈	-1046
▁벌	-1047
▁거짓	-1048
▁13	-1049
이던	-1050
통사고	-1051
렇게	-1052
그램	-1053
▁의미	-1054
▁총	-1055
19	-1056
▁연예인	-1057
이병헌	-1058
무한도전	-1059
▁소환	-1060
TS	-1061
▁완벽	-1062
▁화사	-1063
▁사실무근	-1064
달라	-1065
지원	-1066
클라	-1067
▁싸	-1068
▁군	-1069
하세요	-1070
팝업	-1071
▁웨딩	-1072
리폿	-1073
▁느	-1074
승현	-1075
가인	-1076
4'	-1077
황후의	-1078
프로듀스	-1079
연기	-1080
▁혼	-1081
▁노출	-1082
▁오열	-1083
▁예정	-1084
셋째	-1085
▁엄	-1086
▁뭐	-1087
드래	-1088
드래곤	-1089
한별	-1090
가요	-1091
내가	-1092
그룹	-1093
▁""2	-1094
확인	-1095
시그	-1096
대기	-1097
해요	-1098
▁캐슬	-1099
영상	-1100
▁책임	-1101
이다	-1102
연인	-1103
태영	-1104
키스	-1105
같은	-1106
정은	-1107
유기	-1108
비스	-1109
▁연상	-1110
▁여성	-1111
하트	-1112
하니	-1113
▁글	-1114
트롯	-1115
▁추모	-1116
커플	-1117
▁남친	-1118
▁호소	-1119
▁성형	-1120
▁정체	-1121
▁협박	-1122
▁소식	-1123
▁약	-1124
▁찾아	-1125
시그널	-1126
▁前	-1127
정현	-1128
▁희	-1129
스달	-1130
번째	-1131
호텔	-1132
▁반응	-1133
▁비난	-1134
▁강남	-1135
억원	-1136
▁별세	-1137
제이	-1138
▁만난	-1139
▁다른	-1140
▁각	-1141
▁마이크로닷	-1142
▁김민	-1143
효린	-1144
""→	-1145
▁한지민	-1146
아스달	-1147
▁발견	-1148
신혜	-1149
▁최수종	-1150
미나	-1151
슈가	-1152
재욱	-1153
필립	-1154
현정	-1155
레이	-1156
강다니엘	-1157
나는	-1158
▁위한	-1159
▁찍	-1160
▁종합	-1161
유리	-1162
▁나이	-1163
▁맞아	-1164
▁진짜	-1165
▁기대	-1166
▁제작	-1167
▁없었다	-1168
속계약	-1169
▁연락	-1170
▁포기	-1171
▁미소	-1172
박나래	-1173
▁품격	-1174
▁숨	-1175
▁종료	-1176
▁수상	-1177
세연	-1178
▁캐	-1179
나의	-1180
▁제주	-1181
▁유포	-1182
자현	-1183
고파	-1184
슈가맨	-1185
고은	-1186
▁크	-1187
들이	-1188
습니다	-1189
민수	-1190
준일	-1191
▁법	-1192
래요	-1193
▁합의	-1194
다운	-1195
▁B	-1196
예슬	-1197
▁생활	-1198
▁""1	-1199
▁존	-1200
느리	-1201
며느리	-1202
▁난	-1203
서원	-1204
▁많이	-1205
▁힘들	-1206
▁뜨	-1207
▁버	-1208
누나	-1209
다리	-1210
▁초점	-1211
하트시그널	-1212
▁시즌	-1213
▁몰카	-1214
▁상처	-1215
런닝	-1216
런닝맨	-1217
강경	-1218
랜드	-1219
▁★	-1220
요한	-1221
정재	-1222
▁사생활	-1223
▁엔딩	-1224
▁투약	-1225
생충	-1226
▁감동	-1227
▁이태	-1228
최종훈	-1229
▁처음	-1230
해미	-1231
엑스	-1232
▁달라진	-1233
▁종영	-1234
▁인연	-1235
들의	-1236
▁교통사고	-1237
진짜	-1238
리턴	-1239
▁영화	-1240
▁단톡방	-1241
▁죽음	-1242
▁케미	-1243
다른	-1244
▁육	-1245
포즈	-1246
▁패션	-1247
동욱	-1248
▁이시언	-1249
현빈	-1250
▁참석	-1251
는다	-1252
▁셀	-1253
▁하루	-1254
▁솔직	-1255
▁뿐	-1256
IP	-1257
▁홍선영	-1258
이태	-1259
국민	-1260
▁있어	-1261
▁잘못	-1262
▁모든	-1263
년차	-1264
101	-1265
러포즈	-1266
▁강경	-1267
▁현아	-1268
기생충	-1269
스크	-1270
치는	-1271
들과	-1272
▁않아	-1273
다시	-1274
소유진	-1275
▁C	-1276
자연	-1277
처럼	-1278
현희	-1279
SM	-1280
▁싶다	-1281
▁극복	-1282
모든	-1283
마크	-1284
84,	-1285
했던	-1286
▁빛	-1287
논의	-1288
정연	-1289
진희	-1290
▁침	-1291
서형	-1292
와이프	-1293
음주	-1294
랐다	-1295
▁여친	-1296
SW	-1297
▁떠나	-1298
▁모델	-1299
▁걱정	-1300
▁오해	-1301
이었다	-1302
▁억	-1303
▁시청자	-1304
모델	-1305
성추행	-1306
▁불참	-1307
마워	-1308
심장	-1309
있는	-1310
리스	-1311
▁불륜	-1312
▁운동	-1313
▁15	-1314
▁금	-1315
▁전한	-1316
▁예뻐	-1317
▁헤	-1318
안녕	-1319
▁목격	-1320
채아	-1321
▁풀	-1322
탈출	-1323
▁긴	-1324
▁비보	-1325
게요	-1326
리는	-1327
48	-1328
죄송	-1329
▁이승기	-1330
다은	-1331
▁행복한	-1332
▁라	-1333
▁이필모	-1334
스타그램	-1335
재인	-1336
열애설	-1337
▁유출	-1338
▁비공개	-1339
성광	-1340
리아	-1341
▁공연	-1342
현진	-1343
봇물	-1344
▁김남	-1345
부모	-1346
▁이혜	-1347
관왕	-1348
▁티	-1349
▁사랑해	-1350
현재	-1351
VIP	-1352
미인	-1353
율희	-1354
▁꽃	-1355
?""...	-1356
]‘	-1357
북마크	-1358
▁홍진영	-1359
래퍼	-1360
수향	-1361
재기	-1362
시선	-1363
지섭	-1364
▁징역	-1365
발표	-1366
드라마	-1367
▁전속계약	-1368
성규	-1369
지오	-1370
▁승	-1371
루나	-1372
▁“‘	-1373
피엔딩	-1374
빙빙	-1375
다이어트	-1376
출연	-1377
홍진영	-1378
이하	-1379
▁왕	-1380
보니	-1381
지현	-1382
▁봐	-1383
""[★	-1384
▁김종국	-1385
▁살아	-1386
'→	-1387
기안	-1388
▁여신	-1389
▁환	-1390
▁18	-1391
▁요구	-1392
▁수영	-1393
헨리	-1394
한나	-1395
함께	-1396
현주	-1397
황금	-1398
김희	-1399
원희	-1400
블리	-1401
스럽	-1402
종석	-1403
둥지	-1404
무리	-1405
▁믿	-1406
▁탐	-1407
미투	-1408
▁빈	-1409
▁밤	-1410
▁연예대상	-1411
▁담	-1412
어서	-1413
한서희	-1414
직격	-1415
▁온	-1416
▁이번	-1417
▁이효리	-1418
팬들	-1419
▁아이유	-1420
▁우승	-1421
어벤져스	-1422
훼손	-1423
▁콘서트	-1424
▁아직	-1425
효리네	-1426
장애	-1427
▁라이	-1428
비신부	-1429
함브라	-1430
박민영	-1431
▁김희	-1432
선미	-1433
▁추억	-1434
▁깨	-1435
▁국민	-1436
▁역대	-1437
나비	-1438
▁사업	-1439
▁알아	-1440
▁악플러	-1441
한국	-1442
▁잊	-1443
▁변호사	-1444
▁동반	-1445
▁수술	-1446
▁에이	-1447
형님	-1448
2019	-1449
파티	-1450
▁조작	-1451
워너	-1452
알함브라	-1453
▁인기	-1454
먼저	-1455
진구	-1456
▁당당	-1457
박보검	-1458
'..	-1459
▁봇물	-1460
▁웃음	-1461
▁달달	-1462
▁노력	-1463
▁야	-1464
▁필요	-1465
하자	-1466
▁지성	-1467
?[	-1468
▁언니	-1469
▁프러포즈	-1470
▁망	-1471
▁특별	-1472
▁식	-1473
아이유	-1474
▁염정아	-1475
▁김승현	-1476
▁김태리	-1477
·'	-1478
캠핑	-1479
연애의맛	-1480
77	-1481
아이돌	-1482
▁신성	-1483
해서	-1484
지성	-1485
종민	-1486
개월만	-1487
아버지	-1488
유재석	-1489
진혁	-1490
성재	-1491
▁아니다	-1492
▁먹방	-1493
고소	-1494
▁없이	-1495
30	-1496
둥지탈출	-1497
낸시	-1498
용준	-1499
지환	-1500
시청	-1501
▁우리	-1502
젤예	-1503
연수	-1504
▁급	-1505
보영	-1506
▁살인	-1507
진모	-1508
청원	-1509
미팅	-1510
▁될까	-1511
▁며느리	-1512
아라	-1513
▁박보검	-1514
▁남궁민	-1515
무도	-1516
감동	-1517
▁이후	-1518
▁보도	-1519
...1	-1520
▁17	-1521
의혹	-1522
좋은	-1523
커피	-1524
한끼	-1525
▁볼	-1526
축하	-1527
▁김소연	-1528
명길	-1529
▁가득	-1530
▁보고	-1531
민환	-1532
리고	-1533
▁있는	-1534
엑소	-1535
일까	-1536
제작	-1537
정환	-1538
진아	-1539
▁된다	-1540
세젤예	-1541
시어	-1542
▁행보	-1543
정석	-1544
피해자	-1545
▁유이	-1546
▁해프닝	-1547
▁디	-1548
▁완전	-1549
▁머리	-1550
▁빌	-1551
자리	-1552
▁논의	-1553
정원	-1554
포토	-1555
▁작가	-1556
더니	-1557
▁받아	-1558
▁절친	-1559
아는형님	-1560
▁30	-1561
▁관련	-1562
▁애정	-1563
인공	-1564
▁비밀	-1565
바이	-1566
▁고마워	-1567
▁브	-1568
지훈	-1569
로맨스	-1570
웠다	-1571
▁여자친구	-1572
론을	-1573
▁청춘	-1574
▁탑	-1575
론을박	-1576
타까	-1577
▁갈등	-1578
기로	-1579
두고	-1580
▁전역	-1581
희롱	-1582
메이	-1583
타는	-1584
해줘	-1585
▁대중	-1586
▁싫	-1587
뮤직	-1588
직격인터뷰	-1589
▁박민영	-1590
배가	-1591
댓글	-1592
▁女	-1593
년간	-1594
2]	-1595
▁때문에	-1596
▁방문	-1597
정음	-1598
델루나	-1599
▁화보	-1600
워너원	-1601
▁법적대응	-1602
▁MBC	-1603
▁탐구	-1604
정희	-1605
오빠	-1606
2018	-1607
▁쌍	-1608
▁인간	-1609
▁먼저	-1610
줌인	-1611
트와이스	-1612
관심	-1613
스로	-1614
▁MC	-1615
소미	-1616
▁몰라	-1617
▁마무리	-1618
하차	-1619
본드	-1620
배가본드	-1621
데이	-1622
이시언	-1623
▁잃	-1624
달수	-1625
▁살래요	-1626
보미	-1627
연하	-1628
▁딸과	-1629
▁부탁	-1630
▁여진구	-1631
▁수사	-1632
무게	-1633
진심	-1634
▁궁	-1635
승준	-1636
▁부친	-1637
사실무근	-1638
연서	-1639
그맨	-1640
뷰티	-1641
▁못해	-1642
▁이렇게	-1643
미선	-1644
언니	-1645
화사	-1646
이효리	-1647
▁아이돌	-1648
섹션	-1649
해지	-1650
▁녹화	-1651
동주	-1652
섹시	-1653
낸시랭	-1654
캠핑클럽	-1655
흥국	-1656
의자	-1657
훈남	-1658
▁외모	-1659
▁재개	-1660
예훼손	-1661
▁김서형	-1662
▁골프	-1663
은정	-1664
데뷔	-1665
▁실패	-1666
▁운명	-1667
▁좋은	-1668
▁슈	-1669
게임	-1670
인사	-1671
▁쏟아지는	-1672
▁네	-1673
스토리	-1674
▁퇴출	-1675
▁결심	-1676
남친	-1677
불타는	-1678
▁득남	-1679
박한별	-1680
▁신혼집	-1681
쇼미	-1682
▁돼	-1683
▁월	-1684
지은	-1685
▁약속	-1686
상현	-1687
야기	-1688
▁홀	-1689
▁문자	-1690
▁201	-1691
▁버닝썬	-1692
럽스타그램	-1693
입대	-1694
물결	-1695
후배	-1696
▁기자	-1697
▁공항	-1698
▁아쉬	-1699
▁이제	-1700
상식	-1701
▁김혜	-1702
▁이사	-1703
편집	-1704
구속	-1705
▁삶	-1706
▁행동	-1707
▁동료	-1708
▁자신	-1709
▁특혜	-1710
▁에	-1711
상수	-1712
▁교제	-1713
술집	-1714
▁치료	-1715
▁암	-1716
▁KBS	-1717
▁꼭	-1718
▁고민	-1719
함소원	-1720
▁新	-1721
윤희	-1722
이킴	-1723
사기	-1724
진이	-1725
→2	-1726
소민	-1727
마무	-1728
이유	-1729
101'	-1730
황금빛	-1731
인생술집	-1732
▁16	-1733
▁사장	-1734
지효	-1735
▁끼	-1736
▁공효진	-1737
▁여배우	-1738
안녕하세요	-1739
라디오스타	-1740
▁항	-1741
엔터	-1742
▁지민	-1743
▁로맨스	-1744
▁신부	-1745
▁러브	-1746
▁미나	-1747
수애	-1748
이경	-1749
11	-1750
로서	-1751
혼산	-1752
럴까	-1753
나혼산	-1754
거짓	-1755
스러운	-1756
▁나라	-1757
▁드러	-1758
주연	-1759
▁가슴	-1760
▁벗	-1761
▁의사	-1762
▁테	-1763
▁그만	-1764
병규	-1765
▁셋째	-1766
윤화	-1767
▁앞두고	-1768
클라라	-1769
호동	-1770
시대	-1771
이미	-1772
▁자랑	-1773
CTV	-1774
?"""	-1775
▁집중	-1776
▁가능성	-1777
신성	-1778
경솔	-1779
정유미	-1780
분노	-1781
유지	-1782
▁의미심장	-1783
지수	-1784
신과	-1785
▁댓글	-1786
중계	-1787
▁사태	-1788
▁19	-1789
놀면	-1790
▁아들과	-1791
폭로	-1792
문제	-1793
▁보여	-1794
▁입고	-1795
창석	-1796
▁했다	-1797
힐링	-1798
▁파경	-1799
▁L	-1800
▁세상	-1801
정한	-1802
▁김성	-1803
▁회복	-1804
▁뜨거운	-1805
OA	-1806
주기	-1807
▁한채아	-1808
예쁜누나	-1809
세찌	-1810
이제	-1811
▁김종민	-1812
사건	-1813
승윤	-1814
우빈	-1815
▁이수	-1816
쳤다	-1817
공방	-1818
▁반려	-1819
사람	-1820
▁성접대	-1821
▁의심	-1822
역시	-1823
캔들	-1824
▁현실	-1825
핑클	-1826
매매	-1827
▁측근	-1828
반인	-1829
▁김보라	-1830
반전	-1831
세호	-1832
스팅	-1833
미스터트롯	-1834
▁압	-1835
▁떠난	-1836
▁이틀	-1837
장윤정	-1838
▁핫	-1839
▁추자현	-1840
지아	-1841
보아	-1842
▁만났다	-1843
김태희	-1844
▁빚	-1845
연예계	-1846
▁점	-1847
없이	-1848
성장	-1849
영희	-1850
?..	-1851
주의	-1852
앨범	-1853
▁우정	-1854
데이트	-1855
시원	-1856
달달	-1857
▁김수미	-1858
이현	-1859
울증	-1860
▁거짓말	-1861
시지	-1862
름다운	-1863
아이콘	-1864
사생활	-1865
♥’	-1866
▁구형	-1867
MA	-1868
여전히	-1869
줍쇼	-1870
▁고통	-1871
▁퇴사	-1872
한끼줍쇼	-1873
▁만들	-1874
▁홈	-1875
하루	-1876
회견	-1877
묵묵	-1878
▁안타까	-1879
인트	-1880
...2	-1881
▁솔로	-1882
황하나	-1883
▁25	-1884
▁팬미팅	-1885
이혜	-1886
▁불법	-1887
▁싶어	-1888
장우	-1889
뮤지	-1890
양현석	-1891
▁40	-1892
은퇴	-1893
봄밤	-1894
▁깊	-1895
▁하는	-1896
▁강지환	-1897
주는	-1898
▁내가	-1899
▁터졌다	-1900
▁불가	-1901
가세연	-1902
디어	-1903
▁혜	-1904
▁찬	-1905
루션	-1906
부답	-1907
묵묵부답	-1908
▁재혼	-1909
▁후회	-1910
▁태도	-1911
▁시도	-1912
▁출격	-1913
마음	-1914
하며	-1915
!"	-1916
보고	-1917
▁강제	-1918
NE	-1919
성형	-1920
아내의맛	-1921
이니	-1922
냈다	-1923
로나	-1924
부인	-1925
재환	-1926
▁남긴	-1927
동근	-1928
▁""♥	-1929
▁곽	-1930
▁이야기	-1931
소리	-1932
▁현역	-1933
모모	-1934
▁양현석	-1935
남태현	-1936
주혁	-1937
소녀	-1938
세아	-1939
통령	-1940
▁만든	-1941
성공	-1942
가은	-1943
패션	-1944
영주	-1945
▁탈락	-1946
실검	-1947
현실	-1948
▁김동	-1949
경사	-1950
▁다니	-1951
▁리뷰	-1952
▁닮은	-1953
라고	-1954
▁기자회견	-1955
화영	-1956
민호	-1957
▁체포	-1958
하겠다	-1959
★]""	-1960
▁우려	-1961
ᄏᄏ	-1962
결합	-1963
피플	-1964
▁제기	-1965
▁동안	-1966
▁있었다	-1967
이드	-1968
▁섭	-1969
김비서가	-1970
▁쓰	-1971
▁위로	-1972
▁봉	-1973
집에	-1974
경완	-1975
▁분위기	-1976
인정	-1977
한지민	-1978
리수	-1979
했지만	-1980
▁뭉	-1981
들도	-1982
▁박명수	-1983
?'	-1984
MK	-1985
▁황하나	-1986
담비	-1987
▁기억	-1988
▁아버지	-1989
▁즐	-1990
▁시선	-1991
브리	-1992
즈원	-1993
▁결별설	-1994
라이프	-1995
3]	-1996
▁억울	-1997
▁듯	-1998
서유기	-1999
신서유기	-2000
▁협	-2001
48'	-2002
▁축복	-2003
멜로	-2004
세종	-2005
▁대화	-2006
▁해피엔딩	-2007
매니저	-2008
▁이상윤	-2009
▁연대기	-2010
최근	-2011
키니	-2012
▁비하	-2013
밀리	-2014
▁입건	-2015
추문	-2016
▁성희롱	-2017
지웅	-2018
▁하나	-2019
▁질문	-2020
몰카	-2021
▁추락	-2022
▁계획	-2023
연예가	-2024
▁밝혀	-2025
여정	-2026
▁무슨	-2027
▁조용	-2028
12	-2029
겼다	-2030
▁들어	-2031
▁안해	-2032
▁전화	-2033
이영자	-2034
▁하고	-2035
최수종	-2036
▁실검	-2037
▁결방	-2038
▁수영복	-2039
히든	-2040
윤아	-2041
▁이번엔	-2042
▁증거	-2043
우스	-2044
▁빠진	-2045
▁의상	-2046
▁보내	-2047
▁사재기	-2048
저씨	-2049
▁관리	-2050
▁받았다	-2051
▁복수	-2052
▁괴	-2053
▁양측	-2054
연중	-2055
혜연	-2056
오정연	-2057
▁놓	-2058
탁집	-2059
▁덕	-2060
파격	-2061
김혜	-2062
되는	-2063
▁떨	-2064
붕어	-2065
수정	-2066
신혼	-2067
▁존재	-2068
사자	-2069
회복	-2070
가지	-2071
▁완전체	-2072
투어	-2073
▁숙	-2074
강준	-2075
▁인증샷	-2076
▁혐의로	-2077
연예가중계	-2078
미모	-2079
이승기	-2080
당한	-2081
정우	-2082
▁애틋	-2083
▁여전히	-2084
하이	-2085
음주운전	-2086
▁쉬	-2087
▁활	-2088
▁걸그룹	-2089
▁접	-2090
▁됐	-2091
지우	-2092
▁결과	-2093
▁토로	-2094
▁행사	-2095
박신혜	-2096
▁드레스	-2097
시어부	-2098
▁김현우	-2099
도시어부	-2100
쌈디	-2101
▁낳	-2102
복귀	-2103
이필모	-2104
반성	-2105
▁도박	-2106
▁제주도	-2107
..."""	-2108
▁VS	-2109
종영	-2110
▁소송	-2111
규리	-2112
▁학폭	-2113
▁시청률	-2114
딛고	-2115
▁이종석	-2116
수영	-2117
▁이유는	-2118
진진	-2119
법적대응	-2120
▁막내	-2121
▁무렵	-2122
변호사	-2123
가스	-2124
큐브	-2125
▁성장	-2126
학교	-2127
마지막	-2128
▁효	-2129
▁게재	-2130
▁상태	-2131
▁돌파	-2132
지금	-2133
▁대처	-2134
휘성	-2135
최고의	-2136
지드래곤	-2137
5'	-2138
▁지드래곤	-2139
▁제안	-2140
학생	-2141
▁22	-2142
할리	-2143
▁빈소	-2144
▁쇼	-2145
▁지인	-2146
슈퍼맨	-2147
▁유산	-2148
김남	-2149
석상	-2150
▁부담	-2151
강타	-2152
해명	-2153
▁훈훈	-2154
OC	-2155
▁제일	-2156
핫샷	-2157
▁꿀	-2158
▁홍현희	-2159
▁박성광	-2160
▁사업가	-2161
스브	-2162
다고	-2163
의사	-2164
하하	-2165
▁당황	-2166
보이	-2167
드벨	-2168
▁대신	-2169
드벨벳	-2170
서진	-2171
은우	-2172
▁헤어	-2173
희준	-2174
BTS	-2175
블랙핑크	-2176
▁꺾	-2177
오열	-2178
년만의	-2179
▁송가인	-2180
▁호텔	-2181
핑크빛	-2182
▁이런	-2183
▁귀국	-2184
▁요청	-2185
연석	-2186
바람	-2187
생민	-2188
▁정말	-2189
▁양준일	-2190
▁이민정	-2191
겹경사	-2192
기에	-2193
MBC	-2194
동석	-2195
▁유튜	-2196
유이	-2197
7'	-2198
싱글	-2199
▁서현진	-2200
▁예비신부	-2201
평생	-2202
병원	-2203
▁해체	-2204
리나	-2205
황미나	-2206
차세찌	-2207
열혈	-2208
가는	-2209
▁"`	-2210
▁돌아온	-2211
붕어빵	-2212
▁순간	-2213
▁응	-2214
▁대체	-2215
▁""3	-2216
▁병원	-2217
▁고현정	-2218
▁몰랐다	-2219
▁포옹	-2220
신고	-2221
엑스원	-2222
제작진	-2223
▁형님	-2224
▁면	-2225
윤식당	-2226
▁딛고	-2227
▁사죄	-2228
▁전격	-2229
▁장윤정	-2230
▁여전	-2231
▁가장	-2232
지적	-2233
▁갖	-2234
이하늬	-2235
채은	-2236
만남	-2237
▁제출	-2238
장신영	-2239
000	-2240
▁'♥	-2241
▁일침	-2242
포인트	-2243
바보	-2244
▁예비	-2245
▁지켜	-2246
효광	-2247
인성	-2248
려고	-2249
▁SBS	-2250
정수	-2251
▁21	-2252
▁검토	-2253
환희	-2254
▁카톡	-2255
▁센	-2256
둘째	-2257
▁신혜선	-2258
영애	-2259
치료	-2260
정글	-2261
▁내년	-2262
▁미국	-2263
▁같아	-2264
▁쓴	-2265
어나	-2266
싸움	-2267
▁이름	-2268
상우	-2269
김태리	-2270
▁H	-2271
▁소개	-2272
강한나	-2273
▁결혼설	-2274
불가	-2275
▁가정	-2276
내기	-2277
강경준	-2278
케이	-2279
시세	-2280
컬투	-2281
▁실수	-2282
▁답	-2283
수진	-2284
▁기록	-2285
이스트	-2286
승우	-2287
▁메시지	-2288
시청자	-2289
살차	-2290
사제	-2291
대한	-2292
남자	-2293
▁썸	-2294
▁정준	-2295
브리그	-2296
스토브리그	-2297
▁비판	-2298
강식당	-2299
합의	-2300
혔다	-2301
▁경신	-2302
출산	-2303
▁그럴까	-2304
▁이재	-2305
▁뚝	-2306
▁졸	-2307
▁긴급	-2308
오연서	-2309
▁서강준	-2310
▁사연	-2311
▁24	-2312
▁자체	-2313
석천	-2314
▁허위	-2315
한예슬	-2316
MC	-2317
흡연	-2318
▁폭풍성장	-2319
주간	-2320
중단	-2321
스팟	-2322
핫스팟	-2323
▁김태희	-2324
년전	-2325
▁어디	-2326
케줄	-2327
▁변화	-2328
▁기다	-2329
뜻밖	-2330
신혜선	-2331
▁진행	-2332
▁재결합	-2333
▁진화	-2334
류필립	-2335
▁신성록	-2336
▁명품	-2337
감사	-2338
면서	-2339
▁최진실	-2340
별별	-2341
▁JYP	-2342
▁델루나	-2343
’(	-2344
스카	-2345
▁팀	-2346
스토랑	-2347
▁자택	-2348
▁강다니엘	-2349
▁불똥	-2350
일만에	-2351
박명수	-2352
엘제이	-2353
▁오빠	-2354
▁소식에	-2355
▁남태현	-2356
▁쌍둥이	-2357
▁일본	-2358
BJ	-2359
tv	-2360
인가	-2361
해외	-2362
열혈사제	-2363
셔츠	-2364
▁조민기	-2365
자기	-2366
▁50	-2367
▁조재현	-2368
휘재	-2369
▁지목	-2370
▁떠났다	-2371
▁서동주	-2372
▁최준희	-2373
▁돌아왔다	-2374
▁신고	-2375
▁작품	-2376
기는	-2377
여친	-2378
정민	-2379
▁서울	-2380
▁늦	-2381
나인	-2382
떻게	-2383
지마	-2384
▁그리	-2385
▁기념	-2386
▁편집	-2387
▁업	-2388
▁살해	-2389
▁수지	-2390
김소	-2391
▁욕설	-2392
심히	-2393
▁이동	-2394
설현	-2395
▁심장	-2396
▁P	-2397
매력	-2398
▁경고	-2399
▁비키니	-2400
▁장동건	-2401
%"	-2402
▁배려	-2403
켰다	-2404
이사	-2405
▁한다	-2406
▁동참	-2407
범죄	-2408
▁멋	-2409
승원	-2410
일째	-2411
하길	-2412
유예	-2413
컬투쇼	-2414
구라	-2415
▁나온	-2416
▁못한	-2417
정우성	-2418
▁시상식	-2419
▁울린	-2420
▁박해미	-2421
▁공식석상	-2422
▁심경고백	-2423
▁눈길	-2424
▁벌써	-2425
▁맞다	-2426
▁않은	-2427
나도	-2428
▁이용	-2429
싶다	-2430
▁많은	-2431
▁이상민	-2432
웨이	-2433
도연	-2434
블루	-2435
▁완성	-2436
시세끼	-2437
▁빅뱅	-2438
준혁	-2439
▁성훈	-2440
▁착	-2441
김연	-2442
준열	-2443
중한	-2444
인석	-2445
▁이지은	-2446
스터	-2447
▁득녀	-2448
많이	-2449
▁빚투	-2450
▁일반인	-2451
싱어	-2452
킨십	-2453
'·'	-2454
▁완료	-2455
장훈	-2456
▁와이프	-2457
전지적	-2458
조민기	-2459
국진	-2460
NEW	-2461
▁최민환	-2462
공효진	-2463
▁술	-2464
▁코로나	-2465
조작	-2466
▁폭력	-2467
주세요	-2468
▁출석	-2469
결국	-2470
었나	-2471
어서와	-2472
▁이장우	-2473
▁소지섭	-2474
다미	-2475
▁낭	-2476
tvN	-2477
민아	-2478
▁채무	-2479
불이	-2480
▁한고은	-2481
▁사랑한다	-2482
▁신청	-2483
린지	-2484
▁예상	-2485
개월째	-2486
▁자태	-2487
장동건	-2488
형준	-2489
▁'2	-2490
웃음	-2491
닥터	-2492
▁소유진	-2493
장지연	-2494
효림	-2495
▁않는	-2496
박해미	-2497
정준	-2498
해숙	-2499
▁고충	-2500
▁지금	-2501
▁파티	-2502
박서준	-2503
▁황민	-2504
▁충	-2505
▁김나영	-2506
주원	-2507
▁사랑을	-2508
싣고	-2509
얼굴	-2510
▁미투	-2511
▁주인공	-2512
▁알려	-2513
▁이경	-2514
판빙빙	-2515
증거	-2516
▁셀카	-2517
더라	-2518
러운	-2519
이채은	-2520
된다	-2521
▁강호동	-2522
양준일	-2523
투병	-2524
결별설	-2525
페인	-2526
챌린지	-2527
주호	-2528
▁이해	-2529
▁최선	-2530
이크업	-2531
장재인	-2532
▁어린	-2533
스코	-2534
▁강하늘	-2535
직접	-2536
▁피자	-2537
김희철	-2538
괜찮	-2539
이상한	-2540
▁남편과	-2541
미스터션샤인	-2542
▁장미	-2543
▁소녀	-2544
▁뉴	-2545
▁23	-2546
.5	-2547
▁퍼	-2548
▁노래	-2549
▁주진모	-2550
▁폭로전	-2551
남매	-2552
면허	-2553
▁쿨	-2554
▁휴식	-2555
▁빨	-2556
이야	-2557
▁와	-2558
해야	-2559
▁솔루션	-2560
무엘	-2561
뜻밖의	-2562
▁뭐하니	-2563
신과함께	-2564
길래	-2565
포폴	-2566
▁개그맨	-2567
걸스	-2568
▁출국	-2569
그래	-2570
조정석	-2571
▁캐스팅	-2572
▁의식	-2573
▁힐링	-2574
▁및	-2575
마이	-2576
▁차이	-2577
▁본격	-2578
단적	-2579
▁결실	-2580
!""	-2581
세상	-2582
구해줘	-2583
▁뒷	-2584
사이	-2585
▁참견	-2586
이수	-2587
이태원	-2588
도적	-2589
▁음원	-2590
삼시세끼	-2591
니까	-2592
▁CCTV	-2593
로잡	-2594
여신	-2595
▁번째	-2596
학폭	-2597
▁연상연하	-2598
취소	-2599
▁몸무게	-2600
▁서인	-2601
불법	-2602
2',	-2603
cm	-2604
▁갚	-2605
라보	-2606
최진실	-2607
▁반려견	-2608
▁침묵	-2609
▁임수향	-2610
악플의	-2611
▁김남주	-2612
윤지오	-2613
▁전환	-2614
▁파장	-2615
이민정	-2616
제이쓴	-2617
민석	-2618
영수	-2619
▁박진영	-2620
▁쏟아	-2621
될까	-2622
▁실종	-2623
▁할리	-2624
▁프리	-2625
전의	-2626
히든싱어	-2627
▁해외	-2628
우효광	-2629
▁이혜성	-2630
▁일정	-2631
선아	-2632
녀의	-2633
병철	-2634
하기	-2635
라디오쇼	-2636
→5	-2637
음악	-2638
▁좀	-2639
AOA	-2640
▁앞에서	-2641
▁부친상	-2642
▁男	-2643
▁남다른	-2644
▁얻	-2645
▁눈물로	-2646
향년	-2647
엇갈	-2648
어야	-2649
▁돈가스	-2650
▁새로운	-2651
역대	-2652
정남	-2653
▁발인	-2654
▁팔	-2655
영장	-2656
짠내	-2657
→“	-2658
러블리	-2659
선처	-2660
▁질투	-2661
▁상황	-2662
▁칼	-2663
내년	-2664
▁밀	-2665
▁흥	-2666
▁쏠	-2667
▁트와이스	-2668
▁감우성	-2669
▁아파	-2670
김나영	-2671
▁밥	-2672
▁공감	-2673
스러워	-2674
?""..	-2675
비밀	-2676
단락	-2677
▁어떻게	-2678
▁부른	-2679
두준	-2680
고속	-2681
수사	-2682
이지만	-2683
▁뜬	-2684
▁여론	-2685
디스	-2686
▁안타까운	-2687
▁정유미	-2688
끄럽	-2689
호인	-2690
모두	-2691
▁악플에	-2692
▁진실공방	-2693
▁남자친구	-2694
고현정	-2695
아한	-2696
정성	-2697
▁사부	-2698
셰프	-2699
겨운	-2700
비난	-2701
▁""5	-2702
광수	-2703
잔나비	-2704
▁"'1	-2705
▁최명길	-2706
보드	-2707
▁오창석	-2708
사랑해	-2709
유나	-2710
▁영업	-2711
▁"""'	-2712
▁선후배	-2713
▁괜찮	-2714
주안	-2715
▁설전	-2716
스브스	-2717
▁손담비	-2718
→1	-2719
성기	-2720
▁판빙빙	-2721
▁시점	-2722
▁짧	-2723
까불이	-2724
했나	-2725
폭력	-2726
원과	-2727
▁공유	-2728
▁리얼	-2729
아인	-2730
황장애	-2731
▁드디어	-2732
현지	-2733
▁아픔	-2734
어도	-2735
▁스타일	-2736
▁김용	-2737
▁이틀째	-2738
가정	-2739
소지섭	-2740
은혜	-2741
▁해킹	-2742
꽃길	-2743
?”	-2744
라이브	-2745
▁놀란	-2746
리스마	-2747
서정희	-2748
▁핑크빛	-2749
려한	-2750
장님	-2751
▁같이	-2752
▁직진	-2753
▁효린	-2754
▁않았다	-2755
이틀	-2756
전드	-2757
솔직	-2758
▁자숙	-2759
전미선	-2760
▁함께한	-2761
종신	-2762
▁느낌	-2763
▁싣고	-2764
▁입담	-2765
▁정리	-2766
▁스케줄	-2767
'...'	-2768
▁반대	-2769
▁앨범	-2770
시다	-2771
▁실화	-2772
▁연기대상	-2773
용석	-2774
현준	-2775
..“	-2776
▁합격	-2777
방출	-2778
▁개봉	-2779
▁광고	-2780
▁집에	-2781
줬다	-2782
↑"	-2783
예원	-2784
태프	-2785
늦게	-2786
▁정상	-2787
▁류필립	-2788
자의	-2789
▁청순	-2790
▁지키	-2791
▁오달수	-2792
은이	-2793
▁용기	-2794
▁왔	-2795
규현	-2796
.7	-2797
댄스	-2798
▁최민수	-2799
받은	-2800
▁김재욱	-2801
오해	-2802
김유지	-2803
▁해결	-2804
세계	-2805
미스티	-2806
”..‘	-2807
?""...'	-2808
조선	-2809
▁톱	-2810
계상	-2811
지고	-2812
전임신	-2813
▁스캔들	-2814
▁보니	-2815
운동	-2816
▁서로	-2817
손태영	-2818
마비	-2819
▁슬픔	-2820
.2	-2821
복운전	-2822
이번	-2823
▁잡은	-2824
벌써	-2825
▁귀여	-2826
윤세아	-2827
하면	-2828
▁200	-2829
▁이서원	-2830
▁끊	-2831
▁당해	-2832
네요	-2833
▁꼬	-2834
▁이대	-2835
▁가해	-2836
▁안돼	-2837
▁스킨십	-2838
▁기적	-2839
눈길	-2840
우드	-2841
▁에이미	-2842
할배	-2843
클라쓰	-2844
기고	-2845
지창	-2846
나이	-2847
▁박신혜	-2848
▁혼인	-2849
강남미인	-2850
려원	-2851
▁아쉬운	-2852
기사	-2853
▁대한	-2854
▁이서진	-2855
애도	-2856
▁참여	-2857
친한	-2858
▁김해숙	-2859
▁제작진	-2860
복무	-2861
김보라	-2862
광희	-2863
▁홍윤화	-2864
거리	-2865
도로	-2866
▁이미지	-2867
▁창	-2868
▁비연예인	-2869
씁쓸	-2870
▁일단락	-2871
동원	-2872
살인	-2873
년생	-2874
▁절대	-2875
동료	-2876
유정	-2877
▁좋다	-2878
▁경찰조사	-2879
아직	-2880
▁유지	-2881
녀석	-2882
▁폐암	-2883
장자연	-2884
조세호	-2885
소율	-2886
▁등장에	-2887
▁영광	-2888
▁포함	-2889
▁대방출	-2890
로이킴	-2891
▁이성	-2892
▁정준호	-2893
→3	-2894
교진	-2895
'...""	-2896
▁섭외	-2897
사풀	-2898
인풀	-2899
개월만에	-2900
사풀인풀	-2901
버킷	-2902
▁육아	-2903
▁뷔	-2904
지나	-2905
▁확산	-2906
법정	-2907
스런	-2908
하정우	-2909
갑론을박	-2910
미운	-2911
김동	-2912
▁먹고	-2913
▁재미	-2914
▁사랑꾼	-2915
행복한	-2916
인간	-2917
전자	-2918
▁선고	-2919
▁김흥국	-2920
박진영	-2921
▁이태임	-2922
어진	-2923
.1	-2924
이선	-2925
반박	-2926
수술	-2927
김민희	-2928
▁이하	-2929
XX	-2930
와의	-2931
NEWS	-2932
▁장지연	-2933
→‘	-2934
추가	-2935
▁너	-2936
출동	-2937
▁윤아	-2938
▁클럽	-2939
영훈	-2940
행유예	-2941
▁생일파티	-2942
▁수익	-2943
▁어려	-2944
스케	-2945
인기	-2946
▁쾌	-2947
▁얘	-2948
▁속옷	-2949
강수지	-2950
▁장기	-2951
치고	-2952
▁불러	-2953
▁J	-2954
▁전개	-2955
자들	-2956
김성	-2957
▁도움	-2958
비신랑	-2959
지석	-2960
▁새벽	-2961
장성규	-2962
▁부모님	-2963
▁전면	-2964
어머니	-2965
월의	-2966
미디	-2967
뽀뽀	-2968
▁특급	-2969
US	-2970
▁F	-2971
▁박경	-2972
▁일축	-2973
▁호흡	-2974
강호	-2975
전화	-2976
수미네	-2977
▁쏠린	-2978
82	-2979
본격	-2980
충재	-2981
▁꺾고	-2982
여성	-2983
원영	-2984
란히	-2985
▁율희	-2986
.3	-2987
100	-2988
▁개인	-2989
미스트롯	-2990
악플러	-2991
▁강타	-2992
▁박한별	-2993
개인	-2994
었던	-2995
▁백반	-2996
▁도끼	-2997
▁원해	-2998
용화	-2999
트로	-3000
▁국민청원	-3001
▁강경대응	-3002
▁유승준	-3003
→10	-3004
▁제니	-3005
김정훈	-3006
▁연속	-3007
▁폭로글	-3008
정글의	-3009
윤상현	-3010
받아	-3011
TBC	-3012
▁설현	-3013
▁닮은꼴	-3014
▁갑론을박	-3015
▁선임	-3016
▁조치	-3017
라시	-3018
케미	-3019
강성훈	-3020
▁나들이	-3021
▁하하	-3022
▁홍보	-3023
노브라	-3024
▁좋아해	-3025
▁軍	-3026
▁던	-3027
▁감정	-3028
▁폭소	-3029
천만원	-3030
악의	-3031
DAY	-3032
화유기	-3033
▁싶었다	-3034
▁봤	-3035
▁LA	-3036
▁홍종현	-3037
리카	-3038
만큼	-3039
상처	-3040
의성	-3041
▁자제	-3042
▁살겠다	-3043
년대	-3044
사회	-3045
꽃할배	-3046
▁건물	-3047
NEWSing	-3048
고인	-3049
당신	-3050
▁장성규	-3051
나영석	-3052
홍수현	-3053
▁자신감	-3054
미라	-3055
▁공개열애	-3056
산이	-3057
▁택	-3058
▁과거	-3059
러브	-3060
▁인형	-3061
윤호	-3062
▁양세종	-3063
""→""	-3064
냉부	-3065
대표	-3066
에요	-3067
▁갑질	-3068
▁증언	-3069
▁여전한	-3070
수록	-3071
▁손잡	-3072
라면	-3073
로워	-3074
포커	-3075
▁홍탁집	-3076
현모	-3077
▁우울증	-3078
상욱	-3079
▁입원	-3080
▁헨리	-3081
최명길	-3082
▁불편	-3083
▁현재	-3084
▁월드	-3085
시아	-3086
예쁘	-3087
▁이다	-3088
▁타임	-3089
▁오픈	-3090
▁감탄	-3091
인나	-3092
일만	-3093
FOC	-3094
FOCUS	-3095
▁배신	-3096
♥"	-3097
▁올해	-3098
선언	-3099
청순	-3100
지도	-3101
▁컷	-3102
이용	-3103
▁프로필	-3104
이진	-3105
이비	-3106
철민	-3107
▁90	-3108
▁고백에	-3109
▁말아	-3110
▁의도	-3111
▁동영상	-3112
뜻한	-3113
장면	-3114
40	-3115
▁이나영	-3116
▁차은우	-3117
▁산불	-3118
▁나라의	-3119
원파	-3120
▁♥︎	-3121
▁진출	-3122
비디오	-3123
추자현	-3124
▁넘치는	-3125
역사	-3126
이상윤	-3127
▁강성훈	-3128
혜미	-3129
▁최종범	-3130
▁자진	-3131
수상	-3132
’...	-3133
`"	-3134
▁부상	-3135
류화영	-3136
사의	-3137
서울	-3138
▁요리	-3139
스버킷	-3140
용준형	-3141
▁찾았다	-3142
▁마마무	-3143
명예훼손	-3144
▁하지	-3145
김태호	-3146
최민수	-3147
서도	-3148
흥민	-3149
타임	-3150
▁입증	-3151
신성일	-3152
▁신동	-3153
▁흡연	-3154
조재현	-3155
▁출발	-3156
혜빈	-3157
극한	-3158
재영	-3159
▁멤버들	-3160
▁아름다운	-3161
▁빼	-3162
메이비	-3163
거미	-3164
박성광	-3165
현민	-3166
▁엇갈	-3167
▁열었다	-3168
▁의뢰	-3169
국민청원	-3170
▁명예훼손	-3171
반응	-3172
황정음	-3173
팝인터뷰	-3174
아줘	-3175
가운	-3176
세영	-3177
검찰	-3178
액션	-3179
연승	-3180
▁같다	-3181
▁연습	-3182
김경	-3183
▁용서	-3184
▁2019	-3185
릭터	-3186
▁풍	-3187
▁연루	-3188
▁파문	-3189
▁세계	-3190
김종국	-3191
▁뽐	-3192
내편	-3193
소송	-3194
하나뿐인내편	-3195
미란	-3196
상무	-3197
▁격	-3198
▁게임	-3199
송가인	-3200
이휘재	-3201
바다	-3202
▁특집	-3203
▁휴가	-3204
▁강한나	-3205
??	-3206
▁통화	-3207
냉부해	-3208
▁돈가스집	-3209
일의	-3210
▁관람	-3211
▁민낯	-3212
포커스	-3213
기도	-3214
마리	-3215
리와	-3216
▁조카	-3217
정다은	-3218
▁폭로에	-3219
▁대학	-3220
▁유연석	-3221
많은	-3222
▁접수	-3223
▁아픈	-3224
▁투샷	-3225
▁학교	-3226
도경완	-3227
나요	-3228
결혼식	-3229
RE	-3230
운명	-3231
김우빈	-3232
이는	-3233
▁완벽한	-3234
마초	-3235
▁김정	-3236
▁철	-3237
서른	-3238
주진모	-3239
▁자살	-3240
에선	-3241
▁인사이드	-3242
기성	-3243
▁셰프	-3244
▁해지	-3245
월호	-3246
▁주연	-3247
▁사로잡	-3248
▁진단	-3249
했는데	-3250
아닌	-3251
인선	-3252
여자친구	-3253
슬플	-3254
▁29	-3255
▁거절	-3256
▁변경	-3257
777'	-3258
사업	-3259
아름	-3260
▁비결	-3261
성매매	-3262
▁한예슬	-3263
비디오스타	-3264
▁잔나비	-3265
▁모녀	-3266
더머니	-3267
쇼미더머니	-3268
간다	-3269
윤미	-3270
주차	-3271
되나	-3272
영웅	-3273
▁SM	-3274
▁최진혁	-3275
미니	-3276
▁영향	-3277
소영	-3278
▁럽스타그램	-3279
▁달달한	-3280
▁김희철	-3281
▁공백	-3282
쿠라	-3283
▁노브라	-3284
상혁	-3285
조병규	-3286
연대기	-3287
아스달연대기	-3288
▁정우성	-3289
▁O	-3290
한테	-3291
▁목격담	-3292
나은	-3293
맞춤	-3294
▁가왕	-3295
공연	-3296
피스	-3297
▁입수	-3298
이상민	-3299
대화	-3300
도끼	-3301
▁짝	-3302
▁열심히	-3303
유포	-3304
▁N	-3305
정적	-3306
▁뉴욕	-3307
시후	-3308
메이커	-3309
김영	-3310
▁멜로	-3311
아무	-3312
완벽	-3313
▁카페	-3314
리피	-3315
▁어머니	-3316
▁조윤희	-3317
먼트	-3318
공사	-3319
▁실력	-3320
▁견	-3321
▁음악	-3322
▁이겨	-3323
횡령	-3324
▁불화	-3325
▁촉	-3326
바람이	-3327
▁수입	-3328
▁늘	-3329
▁뺨	-3330
영석	-3331
애틋	-3332
이젠	-3333
만석	-3334
준한	-3335
왕이	-3336
▁구속영장	-3337
▁클	-3338
이별	-3339
인은	-3340
여자	-3341
예련	-3342
당당	-3343
▁김정훈	-3344
공유	-3345
기록	-3346
▁잡았다	-3347
▁동성	-3348
NC	-3349
▁내용	-3350
..1	-3351
▁나오	-3352
▁반한	-3353
▁많아	-3354
창정	-3355
▁회사	-3356
▁옷	-3357
▁핑클	-3358
▁당했다	-3359
▁차태현	-3360
▁섹시	-3361
셔리	-3362
김혜수	-3363
▁총출동	-3364
▁메이크업	-3365
데미	-3366
방터	-3367
선수	-3368
없다	-3369
▁찰	-3370
해도	-3371
▁누가	-3372
라운	-3373
▁열정	-3374
▁레전드	-3375
▁결혼발표	-3376
▁밝혔다	-3377
벤트	-3378
▁다녀	-3379
▁대박	-3380
권상우	-3381
▁나란히	-3382
▁통편집	-3383
파니	-3384
▁흔	-3385
’[	-3386
▁의지	-3387
유환	-3388
▁이종현	-3389
크러	-3390
▁귀환	-3391
했어요	-3392
▁붕어빵	-3393
▁후에도	-3394
▁폐지	-3395
왕진진	-3396
▁문희준	-3397
▁""10	-3398
편지	-3399
▁생방송	-3400
불명	-3401
마마무	-3402
▁한달	-3403
김흥국	-3404
▁오정연	-3405
▁의문	-3406
▁통보	-3407
▁시험	-3408
성관계	-3409
▁홍콩	-3410
▁한서희	-3411
새끼	-3412
효주	-3413
▁기사	-3414
▁본인	-3415
▁청원	-3416
▁변호인	-3417
▁김경	-3418
▁끝에	-3419
나귀	-3420
택트	-3421
▁갑작	-3422
▁장미희	-3423
아이콘택트	-3424
▁펑	-3425
만파	-3426
서연	-3427
▁BJ	-3428
파만파	-3429
3’	-3430
동산	-3431
엔블루	-3432
▁비아이	-3433
뮤지컬	-3434
이종현	-3435
조명	-3436
▁유명	-3437
부록	-3438
이재	-3439
▁지난	-3440
마동석	-3441
책부록	-3442
▁김지영	-3443
창환	-3444
▁잡고	-3445
▁트로	-3446
▁김정현	-3447
▁대통령	-3448
▁이경규	-3449
하자있는	-3450
▁판정	-3451
무대	-3452
▁궁전의	-3453
▁조수애	-3454
▁S	-3455
로벌	-3456
치기	-3457
휴가	-3458
르는	-3459
뉴스룸	-3460
▁붙	-3461
▁스토	-3462
▁강경준	-3463
호화	-3464
▁TV	-3465
사무엘	-3466
억울	-3467
▁애틋한	-3468
▁윤진이	-3469
▁옥	-3470
지지	-3471
▁첫방부터	-3472
이상순	-3473
▁아침	-3474
▁주목	-3475
눈물의	-3476
너는	-3477
▁유튜버	-3478
만기	-3479
연예대상	-3480
▁이연	-3481
▁언제	-3482
▁정국	-3483
▁증명	-3484
▁지나	-3485
조은정	-3486
(14	-3487
직업	-3488
▁고생	-3489
▁전념	-3490
▁예쁘	-3491
▁휘	-3492
▁래퍼	-3493
▁스스로	-3494
▁이영애	-3495
▁떡	-3496
▁혹	-3497
공부	-3498
▁봄	-3499
강하늘	-3500
▁러브콜	-3501
명민	-3502
은비	-3503
엘리	-3504
등래퍼	-3505
!"""	-3506
▁하늘	-3507
▁댄스	-3508
으며	-3509
▁밝힐	-3510
▁입양	-3511
자매	-3512
▁민박	-3513
▁잠적	-3514
은숙	-3515
▁나와	-3516
조윤희	-3517
다가	-3518
정상	-3519
새로운	-3520
노래	-3521
▁박수	-3522
스럽다	-3523
▁김국진	-3524
▁공항패션	-3525
작은	-3526
▁열일	-3527
▁중국	-3528
▁왔다	-3529
니어	-3530
지노	-3531
최민환	-3532
▁흑	-3533
▁싫어	-3534
▁장신영	-3535
▁신인	-3536
폭발	-3537
손님	-3538
솔로	-3539
▁""4	-3540
동갑	-3541
▁조병규	-3542
톱스타	-3543
서효림	-3544
▁뇌	-3545
▁아기	-3546
▁대본	-3547
▁박진희	-3548
▁공개연애	-3549
주은	-3550
호흡	-3551
깊이	-3552
▁끼쳐	-3553
걸그룹	-3554
조수애	-3555
▁아저씨	-3556
▁편성	-3557
▁낸시랭	-3558
▁빅	-3559
곱창	-3560
▁농	-3561
▁조심	-3562
▁몰랐	-3563
▁찾은	-3564
▁확보	-3565
비아이	-3566
▁이선	-3567
김연지	-3568
인멸	-3569
화제	-3570
▁통해	-3571
▁남은	-3572
▁피의자	-3573
반려	-3574
▁품절	-3575
예림	-3576
▁부녀	-3577
▁고소영	-3578
예비신부	-3579
인데	-3580
▁작은	-3581
▁홈즈	-3582
▁성추문	-3583
리굿	-3584
르노	-3585
▁소화	-3586
➝""	-3587
티스트	-3588
득남	-3589
청아	-3590
▁자녀	-3591
차태현	-3592
시영	-3593
▁뭉클	-3594
▁변제	-3595
▁전쟁	-3596
▁이상화	-3597
▁멈	-3598
홍선영	-3599
▁나이차	-3600
서른이지만	-3601
▁향해	-3602
▁송지아	-3603
도박	-3604
▁김생민	-3605
서로	-3606
▁피자집	-3607
아는와이프	-3608
축복	-3609
▁소름	-3610
▁토크	-3611
▁숨진	-3612
→4	-3613
국가	-3614
세형	-3615
▁이동욱	-3616
▁김우빈	-3617
▁흘	-3618
▁식사	-3619
짠내투어	-3620
▁처벌	-3621
교익	-3622
대세	-3623
패치	-3624
민우	-3625
▁낙	-3626
재훈	-3627
녀석들	-3628
티즌	-3629
▁할머니	-3630
▁김성수	-3631
▁친오빠	-3632
▁클라쓰	-3633
최초	-3634
이경규	-3635
상민	-3636
이종석	-3637
▁센터	-3638
조여정	-3639
확인중	-3640
패밀리	-3641
▁나영석	-3642
▁부부의	-3643
획사	-3644
라도	-3645
▁폭주	-3646
끄러운	-3647
갔다	-3648
자필	-3649
제주	-3650
▁""6	-3651
▁과감	-3652
▁다정한	-3653
▁루	-3654
'[★	-3655
▁최근	-3656
사연	-3657
해주	-3658
▁28	-3659
선호	-3660
영란	-3661
요정	-3662
스럽게	-3663
하리수	-3664
▁슈퍼	-3665
▁자유	-3666
홍종현	-3667
▁골목식당	-3668
낚시	-3669
▁사귀	-3670
▁만의	-3671
▁사회	-3672
진설	-3673
▁폭탄	-3674
박수	-3675
이성	-3676
해져	-3677
할리웃	-3678
겠습니다	-3679
▁엑소	-3680
▁♥'	-3681
▁지적	-3682
멘트	-3683
럭셔리	-3684
▁두고	-3685
▁사용	-3686
일본	-3687
▁번복	-3688
▁일부	-3689
▁있을까	-3690
▁바로	-3691
▁받을	-3692
페셜	-3693
▁윤상현	-3694
실히	-3695
지인	-3696
▁매입	-3697
▁아이즈원	-3698
▁앞둔	-3699
▁자리	-3700
세대	-3701
▁꺼	-3702
판왕	-3703
시즌	-3704
조심	-3705
▁기분	-3706
▁매출	-3707
룰라	-3708
♥""...	-3709
▁여유	-3710
장나라	-3711
주인공	-3712
놓은	-3713
▁김남길	-3714
▁바뀌	-3715
▁정황	-3716
채널	-3717
▁싸늘	-3718
멤버들	-3719
전소미	-3720
▁인간들	-3721
▁힘들어	-3722
방적	-3723
▁넘은	-3724
▁백반집	-3725
퇴출	-3726
1)"	-3727
▁씨잼	-3728
▁오랜	-3729
▁운영	-3730
오달수	-3731
사재기	-3732
슬기	-3733
▁영장	-3734
김보미	-3735
단톡방	-3736
▁BTS	-3737
▁로이킴	-3738
바이브	-3739
우주안	-3740
▁타임라인	-3741
졌네	-3742
▁태양	-3743
류준열	-3744
고등래퍼	-3745
노윤호	-3746
박서원	-3747
▁아이콘	-3748
쾌한	-3749
▁내려	-3750
▁소감	-3751
▁검찰	-3752
▁경솔	-3753
▁투표	-3754
마치	-3755
허위	-3756
▁유동근	-3757
▁든	-3758
심쿵	-3759
▁비보에	-3760
▁오프닝	-3761
▁서인국	-3762
레드벨벳	-3763
)(	-3764
▁뛰	-3765
▁잠정	-3766
▁펑펑	-3767
▁보는	-3768
▁선미	-3769
▁프로포폴	-3770
▁라이브	-3771
▁추석	-3772
▁묵묵부답	-3773
▁60	-3774
급실	-3775
심경	-3776
▁뽐낸	-3777
▁재산	-3778
승줄	-3779
억대	-3780
▁엉	-3781
이자	-3782
잘못	-3783
위대한	-3784
확정	-3785
▁초대	-3786
▁밖	-3787
▁적발	-3788
웠던	-3789
▁홍지민	-3790
시작	-3791
▁악플러에	-3792
▁내일	-3793
바지	-3794
심려	-3795
호진	-3796
에이미	-3797
재산	-3798
안정환	-3799
▁최종훈	-3800
우리새끼	-3801
정신	-3802
▁구설	-3803
▁장동	-3804
것이	-3805
이리와	-3806
분간	-3807
▁표절	-3808
▁조보아	-3809
▁눈빛	-3810
하시	-3811
▁목숨	-3812
▁샤	-3813
요미	-3814
▁감사해	-3815
▁홍석천	-3816
카라	-3817
예술	-3818
장서	-3819
▁암시	-3820
투비	-3821
▁정도	-3822
▁돌연	-3823
▁"'♥	-3824
검사	-3825
마나	-3826
▁분다	-3827
▁지원	-3828
▁황당	-3829
미소	-3830
▁남동생	-3831
세에	-3832
로폰	-3833
▁가요	-3834
▁의리	-3835
▁장인	-3836
▁이벤트	-3837
극한직업	-3838
▁불구	-3839
▁겹경사	-3840
올해	-3841
▁코미디	-3842
▁어쩌	-3843
축제	-3844
▁느껴	-3845
▁증량	-3846
▁최우	-3847
▁아내와	-3848
미션	-3849
▁안방	-3850
▁챌린지	-3851
▁김용건	-3852
두절	-3853
시호	-3854
▁강렬	-3855
▁홍상수	-3856
동안	-3857
준상	-3858
혜영	-3859
▁子	-3860
문정원	-3861
·2	-3862
세미	-3863
거짓말	-3864
스페인	-3865
형식	-3866
밥은	-3867
▁최고의	-3868
처음	-3869
▁무너	-3870
▁외도	-3871
▁성유리	-3872
정화	-3873
▁갖고	-3874
▁어색	-3875
▁편지	-3876
하지만	-3877
▁선행	-3878
▁겸	-3879
기주	-3880
불후	-3881
▁극과	-3882
▁"""1	-3883
이런	-3884
▁김영	-3885
▁혼인신고	-3886
주니어	-3887
▁유전자	-3888
시윤	-3889
▁뽀뽀	-3890
▁선사	-3891
료사고	-3892
▁실제	-3893
▁계약해지	-3894
국주	-3895
잔치	-3896
▁남았다	-3897
▁징	-3898
드리	-3899
일기	-3900
측근	-3901
▁끝나	-3902
▁이진	-3903
▁김원희	-3904
▁손태영	-3905
외과	-3906
▁만날	-3907
허지웅	-3908
▁러브스토리	-3909
애정	-3910
도서	-3911
▁김재	-3912
▁찍어	-3913
가슴	-3914
▁결말	-3915
윤종신	-3916
정준호	-3917
홍보	-3918
▁표정	-3919
▁해도	-3920
▁맺	-3921
세븐	-3922
▁닮아	-3923
본인	-3924
▁윤두준	-3925
▁1000	-3926
도원	-3927
아름다운	-3928
침묵	-3929
호감	-3930
▁녹취	-3931
▁뒤늦게	-3932
▁빛나는	-3933
▁엇갈린	-3934
▁정겨운	-3935
골프	-3936
믹스	-3937
▁정석	-3938
녹두	-3939
소환	-3940
제니	-3941
500	-3942
▁최지우	-3943
카데미	-3944
라이트	-3945
▁조용히	-3946
▁최정훈	-3947
오른	-3948
▁사과에도	-3949
인지	-3950
?”"	-3951
▁27	-3952
개의	-3953
▁알고보니	-3954
육아	-3955
시청률	-3956
▁웨딩마치	-3957
의식	-3958
태연	-3959
▁회동	-3960
유빈	-3961
체포	-3962
▁누명	-3963
홍상수	-3964
민경	-3965
스티	-3966
▁단독	-3967
▁입국	-3968
▁사쿠라	-3969
▁꽃길	-3970
해피엔딩	-3971
...”	-3972
▁블랙핑크	-3973
신동	-3974
플레	-3975
▁받은	-3976
▁찍은	-3977
▁한지혜	-3978
▁DM	-3979
▁김기	-3980
▁쏟아진	-3981
전선	-3982
▁따로	-3983
▁돌입	-3984
▁분들	-3985
▁참담	-3986
정가은	-3987
▁통했다	-3988
보기	-3989
▁촉구	-3990
성추문	-3991
룻밤	-3992
▁더욱	-3993
성접대	-3994
스쿨	-3995
▁몰래	-3996
▁질문에	-3997
연맛	-3998
▁기회	-3999
!]	-4000
▁잇	-4001
오랜	-4002
90	-4003
안재현과	-4004
상태	-4005
종수	-4006
개그맨	-4007
에는	-4008
홍윤화	-4009
▁출연료	-4010
낭만	-4011
▁얘기	-4012
▁유혹	-4013
▁허지웅	-4014
리꾼	-4015
▁관객	-4016
싸이	-4017
▁초호화	-4018
몬스타	-4019
상씨	-4020
▁이하늘	-4021
몬스타엑스	-4022
실수	-4023
▁불발	-4024
몸무게	-4025
▁소이현	-4026
요구	-4027
▁뚝뚝	-4028
표예진	-4029
▁열애중	-4030
지난	-4031
펙트	-4032
▁화장	-4033
송지아	-4034
편스토랑	-4035
.9	-4036
나쁜	-4037
부모님	-4038
엘리야	-4039
다예	-4040
버드	-4041
▁유리	-4042
▁입성	-4043
▁터진	-4044
▁통할까	-4045
자랑	-4046
▁뒤집	-4047
▁전혀	-4048
▁꾸	-4049
▁지내	-4050
▁오영주	-4051
절친	-4052
박주호	-4053
▁회장	-4054
황민	-4055
▁그룹	-4056
▁훈남	-4057
▁게스트	-4058
양준혁	-4059
승호	-4060
화연	-4061
기작	-4062
▁신곡	-4063
▁해야	-4064
우림	-4065
있어	-4066
▁추정	-4067
공개연애	-4068
?""..'	-4069
노시호	-4070
씨잼	-4071
▁선예	-4072
이상우	-4073
자숙	-4074
▁손님	-4075
▁0	-4076
쳐야	-4077
▁파악	-4078
▁설레	-4079
적으로	-4080
감독	-4081
라비	-4082
린다	-4083
실서	-4084
▁김철민	-4085
▁미모의	-4086
▁자연	-4087
▁괜찮아	-4088
▁떠난다	-4089
▁아니었다	-4090
받는	-4091
▁무릎	-4092
▁설렘	-4093
재홍	-4094
▁셀프	-4095
진경	-4096
드려	-4097
▁호감	-4098
▁속내	-4099
뭉쳐야	-4100
백종원의	-4101
균상	-4102
승연	-4103
▁미정	-4104
▁“2	-4105
▁거부	-4106
▁복용	-4107
▁연인과	-4108
▁상대	-4109
파이	-4110
▁재판	-4111
았던	-4112
▁되는	-4113
▁단발	-4114
경수	-4115
돌아	-4116
인하	-4117
♥"""	-4118
▁발전	-4119
▁끝판왕	-4120
▁닿	-4121
구나	-4122
▁정신	-4123
하우스	-4124
리즈	-4125
▁판결	-4126
▁웨딩화보	-4127
대중	-4128
▁지효	-4129
▁헬	-4130
▁분쟁	-4131
▁안고	-4132
▁E	-4133
소신	-4134
현중	-4135
▁교수	-4136
▁첸	-4137
▁망언	-4138
▁부산	-4139
▁여파	-4140
▁김형준	-4141
계약해지	-4142
더걸스	-4143
▁이수민	-4144
▁아이스버킷	-4145
od	-4146
▁사는	-4147
▁희망	-4148
믹스나인	-4149
덕제	-4150
볶이	-4151
플라	-4152
.7%	-4153
구원파	-4154
▁배정남	-4155
일로	-4156
▁바뀐	-4157
▁할까	-4158
▁이태란	-4159
보니하니	-4160
▁사업가와	-4161
병재	-4162
예지	-4163
탈퇴	-4164
대성	-4165
은수	-4166
장고	-4167
히트	-4168
▁자매	-4169
▁성관계	-4170
▁유노윤호	-4171
▁페	-4172
되면	-4173
테크	-4174
그알	-4175
세로	-4176
피니	-4177
온라인	-4178
왜그래	-4179
▁행복해	-4180
결혼설	-4181
김준호	-4182
하영	-4183
▁시댁	-4184
▁유준상	-4185
▁일파만파	-4186
▁순위	-4187
▁지상	-4188
▁척	-4189
누가	-4190
실명	-4191
예비	-4192
세령	-4193
아기	-4194
효섭	-4195
▁축구	-4196
윤계상	-4197
정재용	-4198
▁신혼여행	-4199
토크	-4200
전현무와	-4201
▁연예법정	-4202
▁탓	-4203
생각	-4204
▁이규	-4205
▁재조명	-4206
로맨스는	-4207
희와	-4208
냉장고	-4209
▁넘었다	-4210
▁큐브	-4211
▁만삭	-4212
▁...	-4213
▁김지석	-4214
▁울었다	-4215
▁효과	-4216
▁받고	-4217
▁형제	-4218
미국	-4219
궁민남편	-4220
▁"""2	-4221
▁평생	-4222
▁김하늘	-4223
▁민폐	-4224
▁지역	-4225
원서	-4226
포먼	-4227
▁김사부	-4228
▁악성	-4229
마다	-4230
극단적	-4231
▁김희선	-4232
▁소개팅	-4233
낭만닥터	-4234
▁위협	-4235
박스	-4236
▁살고	-4237
▁스토리	-4238
미운우리새끼	-4239
▁장도연	-4240
혁수	-4241
▁활약	-4242
공부가	-4243
▁신성일	-4244
자이	-4245
제동	-4246
홍기	-4247
김남주	-4248
임현주	-4249
▁한수민	-4250
▁챙	-4251
용서	-4252
▁티셔츠	-4253
과의	-4254
▁보낸	-4255
▁워너원	-4256
미애	-4257
유아인	-4258
섰다	-4259
▁따라	-4260
▁협의	-4261
▁이정현	-4262
▁떼	-4263
..2	-4264
▁장혁	-4265
들에	-4266
장인	-4267
▁최강	-4268
▁여동생	-4269
▁울컥	-4270
우울증	-4271
미안	-4272
식샤	-4273
카페	-4274
▁보디	-4275
실제	-4276
여배우	-4277
도록	-4278
뭉클	-4279
현수	-4280
일정	-4281
진우	-4282
8'	-4283
주길	-4284
▁찌	-4285
만한	-4286
▁미안해	-4287
랜선	-4288
메이트	-4289
▁체중	-4290
주현	-4291
▁열연	-4292
이면	-4293
▁모임	-4294
GD	-4295
갈등	-4296
라는	-4297
▁유민	-4298
이동욱	-4299
▁딱	-4300
오중	-4301
▁비극	-4302
봉준호	-4303
▁했는데	-4304
이와	-4305
▁안나	-4306
▁이정재	-4307
▁춤	-4308
다음	-4309
이게	-4310
▁있어요	-4311
▁특별한	-4312
▁묘	-4313
▁맞은	-4314
▁소문	-4315
동반	-4316
살이	-4317
▁어려워	-4318
신곡	-4319
▁만나고	-4320
▁스페셜	-4321
▁"""♥	-4322
▁쌈디	-4323
▁제대로	-4324
김남길	-4325
▁하와이	-4326
와치	-4327
김용	-4328
김구라	-4329
▁한혜연	-4330
채영	-4331
언제	-4332
▁장가	-4333
▁황금	-4334
▁린	-4335
도현	-4336
사망	-4337
유산	-4338
연락	-4339
연우	-4340
품격	-4341
황후의품격	-4342
▁직원	-4343
고소영	-4344
주의보	-4345
러분	-4346
마마	-4347
▁못할	-4348
▁서언	-4349
세윤	-4350
▁풍상씨	-4351
특급	-4352
금지	-4353
이대	-4354
▁김병철	-4355
▁동시	-4356
완벽한	-4357
수수	-4358
백이	-4359
▁성매매	-4360
▁밝은	-4361
릴레이	-4362
▁동거	-4363
▁박봄	-4364
ID	-4365
▁화려한	-4366
하선	-4367
▁감격	-4368
영화제	-4369
김희선	-4370
▁심장마비	-4371
아형	-4372
정진	-4373
끝까지	-4374
제시	-4375
▁씁쓸	-4376
▁역시	-4377
에서도	-4378
▁못했다	-4379
메뉴	-4380
유튜	-4381
▁tvN	-4382
▁납	-4383
▁제시	-4384
▁이승윤	-4385
놨다	-4386
순재	-4387
▁정려원	-4388
리며	-4389
문일	-4390
▁마침	-4391
▁속상	-4392
▁알선	-4393
▁지지	-4394
가요대	-4395
문일답	-4396
유승준	-4397
이승윤	-4398
정소민	-4399
지창욱	-4400
▁어쩌나	-4401
▁의혹에	-4402
▁레드벨벳	-4403
""...`	-4404
지담	-4405
오영주	-4406
▁도경완	-4407
▁에이핑크	-4408
▁폭행사건	-4409
경은	-4410
정세	-4411
▁선처	-4412
▁않을	-4413
▁김민정	-4414
토니	-4415
▁나은	-4416
▁김혜자	-4417
▁전소민	-4418
들은	-4419
지개	-4420
▁진술	-4421
▁황보라	-4422
▁주말	-4423
기성용	-4424
배용준	-4425
ne	-4426
은경	-4427
▁아는	-4428
이동건	-4429
▁고소장	-4430
▁똑	-4431
선녀	-4432
▁김명민	-4433
내일	-4434
▁빠른	-4435
▁했나	-4436
▁특별출연	-4437
의미	-4438
▁둘러	-4439
▁조문	-4440
강간	-4441
서인	-4442
육대	-4443
▁나올	-4444
▁위험	-4445
아이즈원	-4446
광장	-4447
▁졸업	-4448
뜨거운	-4449
▁오만석	-4450
동일	-4451
버트	-4452
은영	-4453
▁기각	-4454
억개의	-4455
박보영	-4456
▁JTBC	-4457
한채아	-4458
시은	-4459
▁부검	-4460
딸바보	-4461
▁커피	-4462
▁혜정	-4463
▁대기	-4464
▁뛰어	-4465
▁무서	-4466
뉴스데	-4467
뉴스데스크	-4468
▁大	-4469
수입	-4470
조치	-4471
▁레이	-4472
솥밥	-4473
▁별책부록	-4474
▁곧	-4475
▁조정	-4476
▁이민기	-4477
송이	-4478
▁항소	-4479
▁김의성	-4480
위너	-4481
▁대립	-4482
▁오래	-4483
티아라	-4484
▁쿠	-4485
영지	-4486
치장	-4487
포먼스	-4488
나다	-4489
▁레드	-4490
▁매직	-4491
▁비상	-4492
한효주	-4493
▁축제	-4494
▁엘	-4495
인조	-4496
분에	-4497
썼다	-4498
키지	-4499
▁벤	-4500
매너	-4501
해제	-4502
(24	-4503
슈츠	-4504
윤지	-4505
선예	-4506
언니네	-4507
▁안아줘	-4508
▁굴	-4509
원한	-4510
▁축가	-4511
정말	-4512
보이스	-4513
▁처분	-4514
그만	-4515
렌즈	-4516
억의	-4517
▁뭘	-4518
네가	-4519
▁기소	-4520
▁칸	-4521
승훈	-4522
▁강요	-4523
절대	-4524
젝트	-4525
▁귀여워	-4526
→6	-4527
▁깊은	-4528
▁법칙	-4529
▁DJ	-4530
▁만들어	-4531
▁하숙	-4532
▁돌아가	-4533
▁먹어	-4534
▁후배	-4535
하고파	-4536
▁뺨치는	-4537
▁이연복	-4538
굳건	-4539
""'	-4540
▁백년	-4541
발언	-4542
이상형	-4543
▁진심으로	-4544
조용	-4545
.3%	-4546
식이	-4547
▁앙	-4548
애들	-4549
▁26	-4550
.6	-4551
▁걷	-4552
▁맞이	-4553
▁신경	-4554
▁조세호	-4555
▁힘들었다	-4556
이은	-4557
찬오	-4558
설렘	-4559
지윤	-4560
”→	-4561
▁검사	-4562
▁시절	-4563
다이	-4564
▁쿨한	-4565
윙스	-4566
조카	-4567
▁그리고	-4568
▁그녀	-4569
▁평양	-4570
승헌	-4571
▁희생	-4572
인사이드	-4573
?]	-4574
아영	-4575
▁다음	-4576
▁뜻	-4577
▁생애	-4578
탁재훈	-4579
▁아티스트	-4580
대체	-4581
양이	-4582
▁당당한	-4583
▁가족사진	-4584
이캐슬	-4585
▁탈출	-4586
먹고	-4587
▁남매	-4588
▁종결	-4589
▁그냥	-4590
▁닮았	-4591
스케치	-4592
▁짜	-4593
이기	-4594
▁안녕	-4595
엔드	-4596
출발	-4597
엔드게임	-4598
선물	-4599
윤균상	-4600
▁교통사고로	-4601
▁공부	-4602
추사랑	-4603
▁나왔다	-4604
기억	-4605
▁반찬	-4606
99	-4607
직한	-4608
▁사라	-4609
▁하우스	-4610
아웃	-4611
이규	-4612
▁당시	-4613
사랑꾼	-4614
차현우	-4615
러워	-4616
식집	-4617
좋아	-4618
고준희	-4619
스캔들	-4620
▁이종수	-4621
당나귀	-4622
▁신뢰	-4623
50	-4624
구단	-4625
칭찬	-4626
▁욕심	-4627
▁품에	-4628
▁광희	-4629
▁만났	-4630
▁기다려	-4631
▁다니엘	-4632
▁빌보드	-4633
있다	-4634
.4	-4635
나를	-4636
로스	-4637
만의	-4638
시완	-4639
영현	-4640
편히	-4641
▁고사	-4642
이라이트	-4643
가경	-4644
▁99	-4645
▁복무	-4646
임세령	-4647
입가경	-4648
▁아파트	-4649
일문일답	-4650
6'	-4651
기다	-4652
초임	-4653
하던	-4654
▁자필	-4655
▁엘제이	-4656
서현	-4657
김생민	-4658
▁능	-4659
놓고	-4660
▁생겨	-4661
▁소신	-4662
박지민	-4663
아저씨	-4664
서빈	-4665
윤성	-4666
▁사나	-4667
▁요정	-4668
▁잊어	-4669
▁고백한	-4670
▁고백까지	-4671
▁아카데미	-4672
17	-4673
숲속	-4674
▁개최	-4675
▁불쾌	-4676
▁밴	-4677
관리	-4678
폐암	-4679
▁연우	-4680
▁입술	-4681
..."	-4682
▁컬	-4683
주일	-4684
혁권	-4685
▁선배	-4686
▁첫날	-4687
이시영	-4688
.2%	-4689
▁강력	-4690
→7	-4691
▁유재환	-4692
▁트로트	-4693
▁둘러싼	-4694
▁뚫	-4695
▁북	-4696
도의	-4697
림프	-4698
▁강현석	-4699
▁V	-4700
재명	-4701
배수지	-4702
...3	-4703
▁각선미	-4704
▁이보영	-4705
▁과시	-4706
일억개의	-4707
▁만취	-4708
▁반해	-4709
▁김수현	-4710
강경대응	-4711
▁사로잡은	-4712
▁발리	-4713
▁절차	-4714
▁조현	-4715
이선빈	-4716
▁만나요	-4717
▁마마	-4718
▁손승원	-4719
두산	-4720
한지성	-4721
▁몰랐던	-4722
▁안재현과	-4723
▁셋	-4724
해라	-4725
호와	-4726
양다리	-4727
우아한	-4728
★]	-4729
연습	-4730
이방	-4731
▁전과	-4732
(3	-4733
▁묻	-4734
미연	-4735
▁화해	-4736
▁한솥밥	-4737
▁잃은	-4738
▁압도적	-4739
▁여친과	-4740
할게	-4741
▁게시	-4742
▁흥행	-4743
그것이	-4744
▁책임감	-4745
▁라면	-4746
▁카이	-4747
기태영	-4748
▁아이디	-4749
▁김연	-4750
▁셀럽	-4751
▁사과문	-4752
▁오나라	-4753
간불	-4754
▁서장훈	-4755
악성	-4756
▁식당	-4757
▁유감	-4758
▁지옥	-4759
▁때아닌	-4760
래스	-4761
드레스	-4762
이정현	-4763
이하정	-4764
▁퍼포먼스	-4765
단독인터뷰	-4766
만장	-4767
민박	-4768
프레	-4769
CCTV	-4770
▁오연서	-4771
강제	-4772
▁몰라보	-4773
▁이하늬	-4774
▁이광수	-4775
](	-4776
두데	-4777
▁네티즌	-4778
드롬	-4779
뱅크	-4780
▁지킨	-4781
집해제	-4782
뮤직뱅크	-4783
기지	-4784
▁나가	-4785
추억	-4786
▁신중	-4787
정인선	-4788
상진	-4789
스완	-4790
▁적극	-4791
▁유인나	-4792
생님	-4793
▁여부	-4794
미인애	-4795
▁캐릭터	-4796
디스패치	-4797
문자	-4798
우승	-4799
죄송합니다	-4800
▁높	-4801
특별	-4802
희라	-4803
송하	-4804
▁제보	-4805
▁표현	-4806
역대급	-4807
▁곳	-4808
박이	-4809
▁상의	-4810
었지만	-4811
▁재계약	-4812
4’	-4813
군님	-4814
산모	-4815
은지	-4816
천만	-4817
▁끝난	-4818
..5	-4819
달만에	-4820
백일의	-4821
▁行	-4822
문서	-4823
▁되찾	-4824
▁제이	-4825
따뜻한	-4826
▁꽉	-4827
중심	-4828
혜경	-4829
▁스태프	-4830
보복운전	-4831
호텔델루나	-4832
▁AOA	-4833
”,	-4834
들호	-4835
살에	-4836
혜원	-4837
▁긴장	-4838
▁것도	-4839
삭발	-4840
▁깨달	-4841
레기	-4842
▁장악	-4843
서현진	-4844
▁가정사	-4845
""···	-4846
모던	-4847
이터	-4848
(16	-4849
어지는	-4850
▁라미란	-4851
예비신랑	-4852
▁달콤	-4853
▁마주	-4854
개념	-4855
▁오보	-4856
▁적도	-4857
오나라	-4858
효리네민박	-4859
검하	-4860
검하수	-4861
▁입맞춤	-4862
생존	-4863
▁로코	-4864
▁고주원	-4865
▁유상무	-4866
그레이	-4867
김우림	-4868
▁냉	-4869
대륙	-4870
힘들	-4871
...♥	-4872
▁두려	-4873
노출	-4874
▁부케	-4875
프터	-4876
성민	-4877
▁고수	-4878
▁조여정	-4879
엄마가	-4880
▁유발	-4881
토리아	-4882
▁상상	-4883
ea	-4884
임수향	-4885
...5	-4886
주영훈	-4887
▁남기고	-4888
스카이캐슬	-4889
▁컸	-4890
진심으로	-4891
▁싫다	-4892
▁여왕	-4893
그녀의	-4894
하려	-4895
▁대마초	-4896
▁공황장애	-4897
점화	-4898
▁식구	-4899
▁재점화	-4900
!""...	-4901
13	-4902
▁살게요	-4903
▁유쾌한	-4904
▁프로그램	-4905
잠적	-4906
▁복근	-4907
강렬	-4908
띠동갑	-4909
히려	-4910
▁흐	-4911
계속	-4912
슈퍼맨이	-4913
▁줘	-4914
두암	-4915
소이현	-4916
송종국	-4917
인두암	-4918
▁조현재	-4919
인아	-4920
XID	-4921
▁괴롭	-4922
▁안현모	-4923
▁옆	-4924
아리	-4925
디킴	-4926
채연	-4927
▁""7	-4928
현지에서	-4929
신애	-4930
▁평가	-4931
입니다	-4932
▁양다리	-4933
▁유튜브	-4934
시게	-4935
여름	-4936
▁마세요	-4937
▁마스크	-4938
간이	-4939
▁산이	-4940
▁의견	-4941
▁후보	-4942
김영희	-4943
▁김영희	-4944
메라	-4945
▁끝내	-4946
▁성현아	-4947
▁한아름	-4948
기의	-4949
▁말이	-4950
▁이예림	-4951
▁장원영	-4952
뷰티인사이드	-4953
겁게	-4954
근석	-4955
만취	-4956
반기	-4957
홍콩	-4958
▁소통	-4959
▁조언	-4960
놀면뭐	-4961
이태임	-4962
이혜성	-4963
최현석	-4964
▁구했다	-4965
▁장자연	-4966
모모랜드	-4967
놀면뭐하니	-4968
드릴	-4969
재판	-4970
한선	-4971
▁무관	-4972
▁발매	-4973
▁전말	-4974
이정재	-4975
홍석천	-4976
뿜뿜	-4977
시혁	-4978
절한	-4979
▁이던	-4980
▁인지	-4981
아이들	-4982
▁류화영	-4983
단발	-4984
박경	-4985
체크	-4986
이번엔	-4987
맨틱	-4988
신뢰	-4989
여론	-4990
우는	-4991
입담	-4992
처벌	-4993
해체	-4994
홍자	-4995
▁남녀	-4996
▁이창	-4997
TE	-4998
매리	-4999
욱조	-5000
▁수순	-5001
강용석	-5002
이방인	-5003
▁심장마비로	-5004
리지	-5005
심에	-5006
파경	-5007
조수향	-5008
속어	-5009
훈련	-5010
싸늘	-5011
▁대왕	-5012
▁심정	-5013
▁봉준호	-5014
▁신동욱	-5015
죄송하다	-5016
벤지	-5017
▁부족	-5018
우만기	-5019
이청아	-5020
미니스트	-5021
불륜	-5022
스병	-5023
심각	-5024
제도	-5025
▁남성	-5026
▁마블	-5027
강호동	-5028
▁들켰다	-5029
김소연	-5030
▁은지원	-5031
무렵	-5032
▁PC	-5033
▁집단	-5034
▁이상형	-5035
▁클라라	-5036
훈남정음	-5037
▁그림	-5038
김정현	-5039
이주연	-5040
의도	-5041
상의	-5042
열음	-5043
시절	-5044
남편과	-5045
▁진정성	-5046
▁차화연	-5047
▁초고속	-5048
성애	-5049
전역	-5050
▁착수	-5051
▁부부싸움	-5052
김지	-5053
▁분석	-5054
?’	-5055
알리	-5056
▁동방	-5057
▁청구	-5058
구혜선과	-5059
보람	-5060
▁국내	-5061
▁까불이	-5062
▁보호	-5063
▁류수영	-5064
누구	-5065
▁아무	-5066
▁백지영	-5067
이준	-5068
▁다할	-5069
▁서수연	-5070
기상	-5071
마담	-5072
불편	-5073
▁죽인	-5074
신성록	-5075
워크	-5076
너지	-5077
▁뜬다	-5078
▁송치	-5079
▁도경수	-5080
늦은	-5081
▁포차	-5082
마녀	-5083
셔서	-5084
잎선	-5085
▁되나	-5086
▁머니	-5087
김수현	-5088
논란의	-5089
▁전미선	-5090
▁휩	-5091
영화상	-5092
▁이혜영	-5093
.8	-5094
▁'10	-5095
▁최현석	-5096
▁법정	-5097
독전	-5098
장혁	-5099
현승	-5100
▁시인	-5101
▁정체는	-5102
집행유예	-5103
법원	-5104
이이경	-5105
앵란	-5106
▁잊지	-5107
▁장난	-5108
▁그리움	-5109
따로	-5110
럼프	-5111
해피	-5112
▁리즈	-5113
▁포스	-5114
▁휴대	-5115
▁180	-5116
박진희	-5117
▁송민호	-5118
▁전혜빈	-5119
▁조정석	-5120
아노	-5121
예쁘게	-5122
▁포방터	-5123
▁홍수현	-5124
▁되고	-5125
▁스트	-5126
▁녀석들	-5127
▁연락두절	-5128
▁간다	-5129
▁이주	-5130
디스크	-5131
▁막내딸	-5132
어리	-5133
▁박보영	-5134
▁이용진	-5135
▁할리우드	-5136
▁U	-5137
태양	-5138
해준	-5139
▁가는	-5140
성현아	-5141
▁카리스마	-5142
▁치매	-5143
뮤지션	-5144
▁('	-5145
소담	-5146
▁유진	-5147
▁두번째	-5148
▁존재감	-5149
(27	-5150
결정적	-5151
형욱	-5152
이수민	-5153
홍탁집	-5154
▁남친과	-5155
위에	-5156
▁공판	-5157
▁친구들	-5158
▁通	-5159
국수	-5160
반찬	-5161
언급	-5162
젤리나	-5163
퍼퓸	-5164
(17	-5165
▁깊이	-5166
▁윤세아	-5167
▁장기용	-5168
혼전임신	-5169
등장	-5170
▁모르	-5171
가로	-5172
▁어깨	-5173
♥""	-5174
김민정	-5175
IC	-5176
▁性	-5177
성년	-5178
준형	-5179
부신	-5180
순위	-5181
▁허락	-5182
▁손흥민	-5183
▁전부터	-5184
▁제거	-5185
▁여자친구와	-5186
or	-5187
th	-5188
강탈	-5189
▁시동	-5190
▁김태호	-5191
깜찍	-5192
▁규현	-5193
▁넘는	-5194
귀병	-5195
받고	-5196
사정	-5197
▁미니	-5198
김주혁	-5199
진심이	-5200
▁빛난	-5201
▁알바	-5202
▁뽑	-5203
바웃	-5204
회장	-5205
어바웃	-5206
스타이슈	-5207
어바웃타임	-5208
기부	-5209
무라비	-5210
리얼	-5211
무원	-5212
민국	-5213
소니	-5214
▁각오	-5215
▁사기혐의	-5216
▁음주사고	-5217
했냐	-5218
▁김우	-5219
▁범죄	-5220
▁사이다	-5221
▁오민석	-5222
정윤	-5223
행기	-5224
▁넘어	-5225
▁하객	-5226
▁새출발	-5227
DJ	-5228
비치	-5229
▁생존	-5230
▁이선균	-5231
▁지켰다	-5232
▁'3	-5233
라이머	-5234
보적	-5235
eat	-5236
▁갑작스런	-5237
▁혼전임신	-5238
떴다	-5239
공황장애	-5240
▁멈춰	-5241
▁얼마나	-5242
▁실망	-5243
▁아름	-5244
진기주	-5245
▁릴레이	-5246
일화	-5247
셨다	-5248
엔터테	-5249
▁맹	-5250
인먼트	-5251
▁이동건	-5252
엔터테인먼트	-5253
▁떠올	-5254
밍아웃	-5255
긴장	-5256
보석	-5257
▁기뻐	-5258
▁판매	-5259
▁김충재	-5260
→9	-5261
▁빠져	-5262
상황	-5263
▁배웅	-5264
▁없을	-5265
▁천재	-5266
▁달콤한	-5267
▁않겠다	-5268
▁낚시	-5269
김서형	-5270
아찔	-5271
↑'"	-5272
▁극찬	-5273
▁짧은	-5274
결혼은	-5275
튜디오	-5276
▁박형식	-5277
▁부끄럽	-5278
▁엑스원	-5279
▁소녀시대	-5280
▁리턴	-5281
▁조건	-5282
▁강용석	-5283
▁김지현	-5284
▁한국은	-5285
▁끌	-5286
걸이	-5287
▁성숙	-5288
사업가	-5289
▁김구라	-5290
비하	-5291
▁강원	-5292
▁비법	-5293
▁접대	-5294
김민기	-5295
이광수	-5296
▁공개한	-5297
석구	-5298
아크	-5299
▁성사	-5300
▁입소	-5301
▁핫한	-5302
캐스팅	-5303
▁박시후	-5304
눈이	-5305
net	-5306
▁간암	-5307
▁김강	-5308
▁동호	-5309
▁시구	-5310
▁유죄	-5311
박정아	-5312
오아이	-5313
인교진	-5314
▁김현중	-5315
▁대표와	-5316
▁목소리	-5317
▁윤지오	-5318
▁정용화	-5319
▁첫만남	-5320
HI	-5321
입원	-5322
펭수	-5323
.4%	-5324
▁사상	-5325
▁원정	-5326
박환희	-5327
▁조현아	-5328
▁지상파	-5329
뭐하세요	-5330
▁"[2019	-5331
갑질	-5332
겨울	-5333
나랑	-5334
먹방	-5335
월드	-5336
히프	-5337
▁거론	-5338
▁들통	-5339
▁뚝섬	-5340
▁성명	-5341
불후의	-5342
▁마련	-5343
▁베이비	-5344
▁멘	-5345
실종	-5346
겠어	-5347
배려	-5348
조개	-5349
▁내기	-5350
▁디스	-5351
▁썼다	-5352
▁김요한	-5353
▁돌잔치	-5354
▁조용필	-5355
▁프로젝트	-5356
▁고맙	-5357
▁과정	-5358
▁음성	-5359
하나경	-5360
▁웹	-5361
백년	-5362
호영	-5363
▁정재	-5364
도서관	-5365
사이다	-5366
싱글맘	-5367
▁물오른	-5368
▁훈훈한	-5369
▁인기가수	-5370
개그	-5371
속보	-5372
웬디	-5373
위스	-5374
제원	-5375
터넷	-5376
김상혁	-5377
수수색	-5378
이혜원	-5379
일진설	-5380
에이핑크	-5381
열정	-5382
초희	-5383
평소	-5384
▁국면	-5385
▁연극	-5386
▁편견	-5387
훈훈한	-5388
▁인교진	-5389
세상에서	-5390
허위사실	-5391
!""...'	-5392
채무	-5393
▁김혜윤	-5394
▁드러낸	-5395
▁사기설	-5396
슈퍼주니어	-5397
디션	-5398
▁라이프	-5399
▁안정환	-5400
▁계속되는	-5401
성우	-5402
착한	-5403
림프종	-5404
▁예능감	-5405
▁말기	-5406
▁정식	-5407
▁탈세	-5408
▁퇴원	-5409
▁왕진진	-5410
날까	-5411
야와	-5412
필무렵	-5413
동백꽃필무렵	-5414
너도	-5415
천재	-5416
▁블랙	-5417
야와키	-5418
▁조인성	-5419
꼈다	-5420
▁매일	-5421
▁산촌	-5422
▁후임	-5423
김재욱	-5424
홍지민	-5425
시킨	-5426
▁이준	-5427
▁잘생	-5428
▁그대로	-5429
▁공방	-5430
▁예정대로	-5431
▁강성	-5432
...6	-5433
▁남규리	-5434
독일	-5435
명의	-5436
몸매	-5437
석규	-5438
▁눈치	-5439
신영수	-5440
새론	-5441
▁유시	-5442
부끄럽	-5443
▁응급실	-5444
▁공식입장	-5445
기름	-5446
기름진	-5447
끝없는	-5448
모던패밀리	-5449
인방	-5450
소중한	-5451
차별	-5452
▁강남미인	-5453
힙합	-5454
▁개그	-5455
▁사주는	-5456
어져	-5457
최종범	-5458
떳떳	-5459
▁독립	-5460
▁오른	-5461
▁목격자	-5462
▁X	-5463
▁인스타	-5464
▁정규	-5465
▁밝혀질	-5466
▁태어나	-5467
롭게	-5468
불화	-5469
연한	-5470
윰댕	-5471
▁않고	-5472
▁신드롬	-5473
▁족	-5474
가시	-5475
란한	-5476
무슨	-5477
자체	-5478
▁'4	-5479
▁과감한	-5480
반지	-5481
▁라인	-5482
▁입학	-5483
사장님	-5484
▁송강호	-5485
장미	-5486
김지원	-5487
▁런	-5488
▁다섯	-5489
▁정다은	-5490
유족	-5491
일뿐	-5492
쉬스완	-5493
홍현희	-5494
▁쪽	-5495
홍철	-5496
(21	-5497
▁통장	-5498
슬리피	-5499
해졌다	-5500
▁용의자	-5501
▁열애인정	-5502
심진화	-5503
해달라	-5504
스테	-5505
쟁이	-5506
송강호	-5507
소녀시대	-5508
▁투어	-5509
가약	-5510
허리	-5511
▁가출	-5512
▁여름	-5513
▁파리	-5514
▁사망에	-5515
▁백년가약	-5516
로우	-5517
300	-5518
▁바다	-5519
▁영예	-5520
▁호평	-5521
든디스크	-5522
▁쟁	-5523
이영	-5524
치미	-5525
조들호	-5526
▁의료사고	-5527
결정적장면	-5528
안나	-5529
이주	-5530
▁취중	-5531
▁극단적	-5532
▁사실상	-5533
스코리아	-5534
▁롱	-5535
▁맥	-5536
무비	-5537
동치미	-5538
마디	-5539
▁그래	-5540
▁대결	-5541
박소담	-5542
▁판박이	-5543
가비	-5544
경호	-5545
만삭	-5546
바울	-5547
..3	-5548
▁반지	-5549
양세종	-5550
유민	-5551
.5%	-5552
▁무섭	-5553
▁추측	-5554
덩이	-5555
아니	-5556
▁귀엽	-5557
▁진경	-5558
▁만나는	-5559
기량	-5560
(22	-5561
▁이석	-5562
서장훈	-5563
▁다나	-5564
(7	-5565
기대	-5566
▁바보	-5567
▁이은	-5568
NA	-5569
▁양성	-5570
김병철	-5571
스태프	-5572
유연석	-5573
수용	-5574
▁영어	-5575
크러시	-5576
돌이	-5577
김신영	-5578
제주도	-5579
▁첫사랑	-5580
조정	-5581
▁닿다	-5582
▁돌려	-5583
▁박유환	-5584
▁이젠	-5585
기까지	-5586
▁김동현	-5587
▁방송인	-5588
고통	-5589
마의	-5590
일상	-5591
레스유	-5592
▁"'8	-5593
▁로맨틱	-5594
▁박민정	-5595
블레스유	-5596
명호	-5597
직원	-5598
▁선수	-5599
마스크	-5600
지용	-5601
밥블레스유	-5602
▁털	-5603
드는	-5604
막내	-5605
영수증	-5606
김사무엘	-5607
당황	-5608
마저	-5609
▁고발	-5610
▁작별	-5611
▁몇	-5612
▁미혼	-5613
▁서유리	-5614
거야	-5615
▁봤다	-5616
▁까	-5617
김재	-5618
했어	-5619
행사	-5620
혜리	-5621
스스로	-5622
시키	-5623
▁발언에	-5624
장모	-5625
▁장재인	-5626
▁앓	-5627
미코	-5628
▁낳고	-5629
▁누드	-5630
▁피해에	-5631
비주얼	-5632
할리우드	-5633
어난	-5634
친다	-5635
이세영	-5636
▁사랑스러운	-5637
하룻밤	-5638
▁축하해	-5639
우정	-5640
▁32	-5641
▁강행	-5642
▁놀라	-5643
신혼집	-5644
▁박수홍	-5645
▁엠	-5646
김원	-5647
클립	-5648
▁행렬	-5649
▁소중한	-5650
리스마스	-5651
▁멀	-5652
▁묵	-5653
부부의	-5654
청춘	-5655
▁서지혜	-5656
▁몰라보게	-5657
가락	-5658
우라	-5659
▁싸움	-5660
▁잃어	-5661
파이크	-5662
그녀	-5663
연히	-5664
팩트	-5665
▁개업	-5666
스파이크	-5667
기가	-5668
▁가져	-5669
▁있을	-5670
▁희열	-5671
▁쪘	-5672
번의	-5673
자는	-5674
▁받았	-5675
▁양씨	-5676
대화의	-5677
슬픔	-5678
▁청혼	-5679
▁세월호	-5680
임성	-5681
▁바꿔	-5682
▁방해	-5683
▁보이	-5684
빛나	-5685
▁빙	-5686
▁무죄	-5687
금형	-5688
흉부	-5689
▁신정환	-5690
▁연습생	-5691
흉부외과	-5692
▁말라	-5693
사람이	-5694
음식	-5695
▁류준열	-5696
영구	-5697
자료	-5698
제보	-5699
▁태교	-5700
조보아	-5701
위로	-5702
들어	-5703
카톡	-5704
학의	-5705
▁역할	-5706
▁유착	-5707
이수근	-5708
▁부시게	-5709
▁보복운전	-5710
▁Y	-5711
▁i	-5712
▁석	-5713
렵다	-5714
쌀롱	-5715
주행	-5716
찬열	-5717
▁팬심	-5718
이렇게	-5719
▁신인상	-5720
▁전소미	-5721
박봄	-5722
박훈	-5723
▁오역	-5724
강은비	-5725
방송가	-5726
양예원	-5727
▁거제도	-5728
▁나영희	-5729
▁노력할	-5730
▁마침표	-5731
▁반려묘	-5732
▁장근석	-5733
인기가요	-5734
렁룩	-5735
▁소유	-5736
▁시끌	-5737
▁휘성	-5738
▁일방적	-5739
김정	-5740
▁57	-5741
▁2018	-5742
강인	-5743
백한	-5744
▁'5	-5745
선희	-5746
타짜	-5747
▁악연	-5748
▁존중	-5749
정용화	-5750
란물	-5751
▁모모	-5752
▁'82	-5753
▁논란의	-5754
▁임영웅	-5755
▁공식사과	-5756
?(	-5757
뭇매	-5758
미리	-5759
시크	-5760
책감	-5761
▁헬스	-5762
송지효	-5763
▁미스터	-5764
▁입었다	-5765
▁장욱조	-5766
이스트라이트	-5767
No	-5768
사모	-5769
작업	-5770
추리	-5771
▁상큼	-5772
황교익	-5773
▁집행유예	-5774
극과	-5775
추측	-5776
표정	-5777
증거인멸	-5778
끼리	-5779
원숙	-5780
의상	-5781
착용	-5782
▁분량	-5783
오창석	-5784
▁미착용	-5785
▁예능인	-5786
▁하리수	-5787
▁턱	-5788
깨비	-5789
요즘	-5790
출석	-5791
이서원	-5792
▁권나라	-5793
▁긴급체포	-5794
▁돋	-5795
형돈	-5796
▁45	-5797
베리굿	-5798
▁문제로	-5799
▁살았다	-5800
도환	-5801
어로	-5802
입술	-5803
종의	-5804
지희	-5805
아육대	-5806
▁유혹자	-5807
▁참고인	-5808
▁강제추행	-5809
상한	-5810
카이	-5811
feat	-5812
▁표예진	-5813
▁힘든	-5814
서유리	-5815
▁건강한	-5816
▁반전의	-5817
▁아이들	-5818
▁아이린	-5819
그리	-5820
남녀	-5821
첩장	-5822
▁만족	-5823
▁불안	-5824
▁천만	-5825
한수민	-5826
▁""20	-5827
귀국	-5828
동작	-5829
리틀	-5830
태도	-5831
▁공포	-5832
성희롱	-5833
!!	-5834
▁말할	-5835
차은우	-5836
▁보여준	-5837
▁제치고	-5838
젝스	-5839
집중	-5840
연정훈	-5841
▁생활고	-5842
젝스키스	-5843
매일	-5844
은채	-5845
▁박일	-5846
▁장면	-5847
▁뮤지컬	-5848
씨엔블루	-5849
·‘	-5850
▁눈에	-5851
▁유백이	-5852
김준	-5853
니스	-5854
▁포승줄	-5855
▁극비	-5856
▁말고	-5857
▁수준	-5858
▁전달	-5859
▁청년	-5860
백지영	-5861
▁대학생	-5862
▁사람들	-5863
겨진	-5864
▁태국	-5865
츠하이	-5866
츠하이머	-5867
▁교체	-5868
▁군대	-5869
스프레	-5870
그냥	-5871
명예	-5872
찬우	-5873
콜릿	-5874
3',	-5875
▁아이디는	-5876
▁론	-5877
▁지우	-5878
차예련	-5879
▁빨간불	-5880
릭비	-5881
▁손잡고	-5882
태국	-5883
▁떨려	-5884
▁조율	-5885
쯤되면	-5886
▁하버드	-5887
식회	-5888
란만장	-5889
끼쳐	-5890
도시	-5891
▁드러난	-5892
잘생	-5893
.6%	-5894
▁시술	-5895
▁지킬	-5896
주상욱	-5897
▁가지고	-5898
▁이국주	-5899
국인	-5900
▁침대	-5901
▁400	-5902
룡영화상	-5903
▁매체	-5904
▁실형	-5905
당분간	-5906
임원희	-5907
▁친구로	-5908
▁다이어트로	-5909
태규	-5910
▁뿜뿜	-5911
나인룸	-5912
필로폰	-5913
▁고준희	-5914
▁나섰다	-5915
▁애도물결	-5916
소라	-5917
▁이뤄	-5918
▁고아라	-5919
▁선물에	-5920
▁31	-5921
▁고려	-5922
마더	-5923
▁개리	-5924
▁성료	-5925
독한	-5926
▁때부터	-5927
▁이다해	-5928
백년손님	-5929
▁열애설에	-5930
2020	-5931
▁뒤집어	-5932
▁하정우	-5933
▁결혼식서	-5934
▁소속사와	-5935
나무	-5936
카펫	-5937
당당한	-5938
일반인	-5939
코멘트	-5940
▁속마음	-5941
▁유포자	-5942
▁이지혜	-5943
살해	-5944
▁양육	-5945
▁민지영	-5946
김경란	-5947
▁엄마의	-5948
▁뭔	-5949
▁울고	-5950
▁청산	-5951
감사합니다	-5952
기자	-5953
없어	-5954
▁레스토랑	-5955
?'"	-5956
▁마이	-5957
▁새해	-5958
▁있나	-5959
▁찰떡	-5960
▁미스코리아	-5961
이탈	-5962
▁폭격	-5963
이정은	-5964
▁낭군님	-5965
▁러블리	-5966
▁블	-5967
▁훌	-5968
사냥	-5969
▁엄지	-5970
신현준	-5971
만명	-5972
성이	-5973
▁나는	-5974
▁이정은	-5975
FF	-5976
찬미	-5977
▁가족사	-5978
▁김민준	-5979
▁노사연	-5980
▁충격의	-5981
랜선라이프	-5982
▁짓	-5983
▁강형욱	-5984
▁이윤미	-5985
시길	-5986
-'	-5987
불안	-5988
세는	-5989
연극	-5990
천사	-5991
허그	-5992
성년자	-5993
▁짝사랑	-5994
교통사고	-5995
(8	-5996
▁획	-5997
매출	-5998
▁말씀	-5999
▁불거	-6000
▁선아	-6001
▁다니냐	-6002
▁전성기	-6003
라라	-6004
시장	-6005
침대	-6006
▁고준	-6007
▁완치	-6008
펙트럼	-6009
▁뻔	-6010
▁한복	-6011
▁K	-6012
▁다이	-6013
▁당한	-6014
녹두전	-6015
▁글로벌	-6016
▁서울대	-6017
▁이상우	-6018
ICK	-6019
▁김주	-6020
▁수현	-6021
목격	-6022
유명	-6023
▁바람	-6024
▁곁	-6025
▁증상	-6026
▁갑자기	-6027
▁무섭다	-6028
얼짱	-6029
'→'	-6030
리로	-6031
솔루션	-6032
무법	-6033
▁알았	-6034
이란	-6035
▁싶은	-6036
도깨비	-6037
▁군입대	-6038
선우	-6039
일우	-6040
▁감성	-6041
박민정	-6042
▁선생님	-6043
▁속사정	-6044
▁송종국	-6045
인과	-6046
작가	-6047
장기	-6048
조카면	-6049
▁박주호	-6050
우월	-6051
..‘	-6052
▁친한	-6053
▁퇴장	-6054
박시은	-6055
1]"	-6056
보단	-6057
▁스크	-6058
정도	-6059
▁김소	-6060
▁보여줄	-6061
▁술자리	-6062
앵커	-6063
타깝	-6064
▁극복한	-6065
한부	-6066
▁보며	-6067
▁외출	-6068
빅토리아	-6069
16	-6070
상휴가	-6071
공감	-6072
▁난리	-6073
▁덕에	-6074
성유리	-6075
▁누리꾼	-6076
개콘	-6077
노력	-6078
영미	-6079
언제나	-6080
▁유민상	-6081
▁지켜봐	-6082
▁클래스	-6083
▁크리스마스	-6084
마리텔	-6085
▁바라보	-6086
▁앉	-6087
신랑	-6088
▁동갑	-6089
▁오는	-6090
수빈	-6091
침없는	-6092
▁뜻밖의	-6093
▁역대급	-6094
동성	-6095
종혁	-6096
한지	-6097
다나	-6098
▁사유	-6099
▁송유빈	-6100
불허	-6101
밖에	-6102
▁내한	-6103
김민규	-6104
투데이	-6105
▁널	-6106
원조	-6107
▁지라시	-6108
▁범	-6109
석진	-6110
실망	-6111
▁있게	-6112
▁지현우	-6113
▁케이	-6114
우진	-6115
하준	-6116
▁심각	-6117
▁운전	-6118
이솜	-6119
▁밟	-6120
자녀	-6121
▁손해	-6122
화려한	-6123
▁열애에	-6124
▁이진욱	-6125
지기	-6126
▁백상	-6127
▁삼촌	-6128
▁시장	-6129
▁심쿵	-6130
▁얻은	-6131
▁티아라	-6132
ye	-6133
""➝	-6134
▁동원	-6135
▁든든	-6136
유튜브	-6137
▁가세연	-6138
▁리턴즈	-6139
▁2020	-6140
광고	-6141
사나	-6142
토가	-6143
▁드려	-6144
▁목적	-6145
▁생후	-6146
김충재	-6147
▁김정은	-6148
행보	-6149
▁미션	-6150
▁바꾼	-6151
▁유일	-6152
구선수	-6153
시리즈	-6154
이었나	-6155
이진혁	-6156
▁나플라	-6157
▁윤시윤	-6158
▁이대로	-6159
▁필요할	-6160
▁시어머니	-6161
감빵	-6162
민지	-6163
쉘리	-6164
욕설	-6165
위생	-6166
협의	-6167
]'1	-6168
eye	-6169
▁무산	-6170
▁실명	-6171
▁한번	-6172
김지수	-6173
김지철	-6174
윤민수	-6175
▁받겠다	-6176
▁싸늘한	-6177
▁이수근	-6178
▁태사자	-6179
아들로서	-6180
▁송혜교에	-6181
▁아니에요	-6182
하이라이트	-6183
▁[2019	-6184
구장	-6185
신중	-6186
어워	-6187
음원	-6188
집단	-6189
차이	-6190
▁김준	-6191
▁잠시	-6192
▁제발	-6193
강타와	-6194
세월호	-6195
오늘도	-6196
오초희	-6197
크로스	-6198
▁울렸다	-6199
▁"'2019	-6200
▁뿌	-6201
▁쇄	-6202
대박	-6203
민근	-6204
탈세	-6205
▁주문	-6206
▁스윙스	-6207
▁이윤지	-6208
▁전세계	-6209
▁죽음에	-6210
▁짐	-6211
슈트	-6212
현경	-6213
""·	-6214
(28	-6215
돌아온	-6216
▁권다미	-6217
▁황정음	-6218
예술대상	-6219
르다	-6220
으나	-6221
톡톡	-6222
]'8	-6223
뺑소니	-6224
▁럭셔리	-6225
▁조덕제	-6226
▁대왕조개	-6227
매치	-6228
사유	-6229
원히	-6230
징계	-6231
▁설립	-6232
▁한류	-6233
숲속의	-6234
▁안소미	-6235
▁첫방송	-6236
재개	-6237
카오	-6238
▁다정	-6239
▁전원	-6240
▁직전	-6241
101’	-6242
▁유산슬	-6243
▁임창정	-6244
▁자택서	-6245
음악중심	-6246
▁예비신랑	-6247
학래	-6248
혐오	-6249
▁채취	-6250
▁키운	-6251
김성재	-6252
생존기	-6253
유인석	-6254
▁가요계	-6255
▁부동산	-6256
▁압수수색	-6257
조선생존기	-6258
→8	-6259
보내	-6260
화책	-6261
▁환영	-6262
김용국	-6263
빅히트	-6264
윤혜진	-6265
피니트	-6266
▁대응할	-6267
▁대화방	-6268
▁사고로	-6269
▁성형설	-6270
▁스위스	-6271
▁암투병	-6272
격탄	-6273
으니	-6274
퀸덤	-6275
▁미녀	-6276
▁발끈	-6277
▁재차	-6278
리에이	-6279
마이걸	-6280
이유영	-6281
▁직격탄	-6282
계획	-6283
국제	-6284
인표	-6285
▁골절	-6286
▁끝까지	-6287
▁안재욱	-6288
▁인정한	-6289
♥→	-6290
진다	-6291
▁건물주	-6292
▁유인석	-6293
▁백종원의	-6294
▁빵	-6295
세원	-6296
창민	-6297
▁사귄	-6298
김하영	-6299
▁샤이니	-6300
▁속에	-6301
▁재밌	-6302
▁시청자도	-6303
원호	-6304
▁도망	-6305
▁시집	-6306
▁유부	-6307
▁준희	-6308
굿바이	-6309
플레이어	-6310
▁인간이니	-6311
▁표명	-6312
▁빈자리	-6313
▁산촌편	-6314
맞이	-6315
제로	-6316
▁나의	-6317
▁목표	-6318
▁무게	-6319
▁싶지	-6320
▁金	-6321
이거	-6322
▁경악	-6323
라라랜드	-6324
소식	-6325
중고	-6326
▁빨리	-6327
채원	-6328
혈액	-6329
▁뛰어넘	-6330
▁동기	-6331
▁측이	-6332
박지윤	-6333
이보미	-6334
혈액암	-6335
후폭풍	-6336
(5	-6337
만난	-6338
이다해	-6339
'..""	-6340
릴까	-6341
양측	-6342
▁즐겨	-6343
이수역	-6344
남다른	-6345
이의	-6346
포차	-6347
▁역사	-6348
지난해	-6349
▁보이는	-6350
▁코스프레	-6351
부자	-6352
▁동문	-6353
▁때도	-6354
▁메뉴	-6355
▁칭찬	-6356
▁남편은	-6357
▁불가피	-6358
▁유치장	-6359
주만	-6360
▁최악의	-6361
희진	-6362
▁조성	-6363
인생캐	-6364
▁가득한	-6365
▁윤정수	-6366
▁이쯤되면	-6367
요원	-6368
▁여지	-6369
▁자기	-6370
반려견	-6371
▁모습에	-6372
▁여성과	-6373
삼촌	-6374
세이	-6375
승환	-6376
▁스몰	-6377
럽스타	-6378
변요한	-6379
양세형	-6380
▁하나의	-6381
▁""8	-6382
강제추행	-6383
변신	-6384
▁기습	-6385
▁살자	-6386
암투병	-6387
공개열애	-6388
▁소집해제	-6389
개리	-6390
려준	-6391
▁볼륨	-6392
▁괴로워	-6393
소름	-6394
진웅	-6395
▁불꽃	-6396
권혁수	-6397
김현우	-6398
송다은	-6399
▁아쉬움	-6400
재혼	-6401
빌보드	-6402
▁동창	-6403
▁무엇	-6404
▁차예련	-6405
시비	-6406
옥빈	-6407
지부	-6408
▁잠재	-6409
▁조합	-6410
비투비	-6411
이사강	-6412
▁에리카	-6413
▁운명적	-6414
▁띄	-6415
▁모친	-6416
▁이솜	-6417
▁곡	-6418
강원	-6419
바라	-6420
김연아	-6421
▁종지부	-6422
장미인애	-6423
▁반격	-6424
▁어색한	-6425
▁보다	-6426
▁조우리	-6427
?...'	-6428
▁레드카펫	-6429
구성	-6430
.9%	-6431
등학생	-6432
커피프	-6433
커피프렌즈	-6434
은탁	-6435
정법	-6436
표현	-6437
▁알게	-6438
▁줬다	-6439
▁재벌	-6440
달라진	-6441
박성훈	-6442
▁라디오	-6443
▁죄송합니다	-6444
이해	-6445
하러	-6446
▁찬다	-6447
김국진	-6448
이나리	-6449
▁세븐	-6450
신민아	-6451
이틀째	-6452
암치료	-6453
▁보답	-6454
▁타투	-6455
▁닭	-6456
선택	-6457
▁중계	-6458
김창환	-6459
손흥민	-6460
]""2	-6461
▁마동석	-6462
▁홀로서	-6463
치지	-6464
▁장애	-6465
▁필요해	-6466
▁한마디	-6467
▁금지	-6468
▁전해	-6469
▁동료로	-6470
▁펼	-6471
▁교육	-6472
었으면	-6473
▁돌렸다	-6474
▁이엘리야	-6475
서울메이트	-6476
기준	-6477
김종민	-6478
성형설	-6479
타지오	-6480
▁기획사	-6481
▁지진희	-6482
▁전현무와	-6483
수한	-6484
연소	-6485
지급	-6486
▁로희	-6487
▁길거리	-6488
▁변요한	-6489
▁품절남	-6490
▁김미	-6491
하지원	-6492
▁왔어요	-6493
▁정지훈	-6494
▁묶	-6495
▁옹	-6496
듀엣	-6497
요요	-6498
▁가짜	-6499
▁실신	-6500
병으로	-6501
쌍둥이	-6502
팬미팅	-6503
동민	-6504
지코	-6505
트리	-6506
틀리	-6507
민효린	-6508
▁무대서	-6509
▁희귀병	-6510
▁콜	-6511
▁푸	-6512
▁가을	-6513
▁어떤	-6514
프로필	-6515
▁함무라비	-6516
!”	-6517
추석	-6518
▁살짝	-6519
행복하게	-6520
▁야노시호	-6521
어집	-6522
▁흔들	-6523
.1%	-6524
▁MV	-6525
▁검거	-6526
▁구입	-6527
▁떴다	-6528
유산슬	-6529
▁워	-6530
쇼핑	-6531
▁다짐	-6532
▁진지	-6533
▁친딸	-6534
마이웨이	-6535
▁비인두암	-6536
▁브루	-6537
남궁민	-6538
들에게	-6539
신혼여행	-6540
겠네	-6541
규종	-6542
▁믿어	-6543
▁선우	-6544
김민준	-6545
무법변호사	-6546
(9	-6547
소한	-6548
자로	-6549
투표	-6550
▁섭섭	-6551
▁차량	-6552
글로벌	-6553
왕대륙	-6554
'..'	-6555
▁해고	-6556
변정수	-6557
부담	-6558
▁여수	-6559
딸과	-6560
▁내린	-6561
임창정	-6562
▁감동의	-6563
▁연출	-6564
염정아	-6565
▁유소영	-6566
리에	-6567
퇴사	-6568
▁김윤	-6569
▁도발	-6570
안현모	-6571
원더걸스	-6572
명은	-6573
하네	-6574
책임감	-6575
빨간	-6576
하의	-6577
▁무색	-6578
앞으로	-6579
▁신지수	-6580
다사	-6581
춘기	-6582
▁도티	-6583
▁불러온	-6584
주말	-6585
▁기쁨	-6586
▁완성한	-6587
▁기류	-6588
▁음식	-6589
▁환상	-6590
▁아우라	-6591
대가	-6592
▁굴욕	-6593
▁신랑	-6594
♥︎'	-6595
반려묘	-6596
럽게	-6597
연재	-6598
▁달성	-6599
▁당신	-6600
▁보기	-6601
▁전액	-6602
선후배	-6603
여러분	-6604
▁이수지	-6605
▁알츠하이머	-6606
▁덜	-6607
▁불륜설	-6608
▁언론	-6609
▁이룰	-6610
▁유아인	-6611
세리	-6612
잖아	-6613
병은	-6614
▁당혹	-6615
▁부자	-6616
불허전	-6617
▁써	-6618
전혀	-6619
에디킴	-6620
▁서효림	-6621
최예슬	-6622
▁눈부신	-6623
다발	-6624
소희	-6625
▁안에	-6626
▁조선	-6627
허영지	-6628
▁박정민	-6629
▁반가운	-6630
▁지키고	-6631
▁뜬금	-6632
▁장사	-6633
▁간미연	-6634
라테	-6635
▁죽을	-6636
준비	-6637
픽처	-6638
▁가족과	-6639
▁않는다	-6640
리기	-6641
본승	-6642
영이	-6643
▁끌어	-6644
▁물을	-6645
고마워	-6646
가요광장	-6647
리에이터	-6648
▁살이	-6649
▁전체	-6650
▁파이	-6651
→♥	-6652
세경	-6653
시경	-6654
감격	-6655
김치	-6656
로드	-6657
보는	-6658
▁지코	-6659
▁홍자	-6660
...7	-6661
성격	-6662
▁이유로	-6663
▁씨엔블루	-6664
▁갸	-6665
관련	-6666
만나	-6667
카드	-6668
쿨한	-6669
▁발목	-6670
▁열광	-6671
▁만난다	-6672
▁맞고소	-6673
▁서인영	-6674
▁아니고	-6675
▁언급에	-6676
부끄러운	-6677
ES	-6678
▁빗	-6679
낼까	-6680
▁개입	-6681
김유정	-6682
육지담	-6683
포르노	-6684
▁기대해	-6685
▁디아크	-6686
▁어렵다	-6687
▁유영현	-6688
▁윤서빈	-6689
▁캐나다	-6690
자연스럽게	-6691
PM	-6692
·3	-6693
▁숀	-6694
게시	-6695
노엘	-6696
매체	-6697
스경	-6698
시끌	-6699
예정	-6700
제스	-6701
창범	-6702
채진	-6703
츠비	-6704
팽팽	-6705
펀치	-6706
혜정	-6707
혹한	-6708
FNC	-6709
MMA	-6710
▁대성	-6711
▁만기	-6712
▁명곡	-6713
▁물의	-6714
▁밴쯔	-6715
▁이식	-6716
▁쟁점	-6717
▁피부	-6718
▁항의	-6719
곽도원	-6720
도쉘리	-6721
레이트	-6722
서인영	-6723
시공사	-6724
양식집	-6725
윤두준	-6726
이하늘	-6727
▁김준한	-6728
▁뜨겁게	-6729
▁씁쓸한	-6730
▁안혜경	-6731
▁역주행	-6732
▁이진혁	-6733
자필편지	-6734
진실공방	-6735
▁의식불명	-6736
스트레이트	-6737
▁국민청원까지	-6738
♥""...'	-6739
HD	-6740
▁움	-6741
고생	-6742
피자	-6743
항소	-6744
▁도와	-6745
▁별개	-6746
▁움직	-6747
▁증폭	-6748
발표회	-6749
부동산	-6750
차기작	-6751
▁800	-6752
▁박하나	-6753
▁불명예	-6754
▁상태로	-6755
▁양세형	-6756
경찰조사	-6757
애들생각	-6758
오늘부터	-6759
▁제작발표회	-6760
▁쓸	-6761
승자	-6762
전지현	-6763
조용필	-6764
▁커지는	-6765
▁48	-6766
▁바꿨	-6767
▁한결	-6768
▁호주	-6769
▁김수민	-6770
▁일반인과	-6771
▁찢	-6772
동호	-6773
심사	-6774
vsA	-6775
▁나비	-6776
▁위엄	-6777
한고은	-6778
▁떡볶이	-6779
거지	-6780
카인	-6781
피소	-6782
▁정부	-6783
만으로	-6784
▁민혜연	-6785
▁바꿨다	-6786
▁분들께	-6787
▁중징계	-6788
▁뭇매	-6789
▁원호	-6790
▁청하	-6791
비공개	-6792
▁배수지	-6793
이슈와치	-6794
골퍼	-6795
기원	-6796
은진	-6797
지옥	-6798
▁고기	-6799
▁반쪽	-6800
경솔한	-6801
고기	-6802
레용	-6803
에겐	-6804
▁내내	-6805
▁대란	-6806
▁왜곡	-6807
레용팝	-6808
▁손나은	-6809
▁손동작	-6810
▁최측근	-6811
▁미스터리	-6812
나연	-6813
중완	-6814
▁과한	-6815
▁모욕	-6816
정선희	-6817
▁김유지	-6818
결과	-6819
마닷	-6820
▁DOC	-6821
▁천호진	-6822
작품	-6823
정국	-6824
헤어	-6825
화장	-6826
▁역풍	-6827
▁영입	-6828
진정한	-6829
해프닝	-6830
..12	-6831
▁김상혁	-6832
도주	-6833
송다예	-6834
페미니스트	-6835
OD	-6836
완전	-6837
태웅	-6838
투약	-6839
판사	-6840
▁조롱	-6841
동영상	-6842
▁관계자	-6843
▁송지효	-6844
▁오히려	-6845
▁잃었다	-6846
▁족하다	-6847
손예진과	-6848
복절	-6849
흙탕	-6850
▁간이	-6851
▁류담	-6852
▁바라	-6853
▁취재	-6854
같이살	-6855
같이살래요	-6856
미수	-6857
▁봐도	-6858
▁출근	-6859
강지환	-6860
주장	-6861
화해	-6862
▁횡령	-6863
▁엄앵란	-6864
담화	-6865
명한	-6866
▁38	-6867
▁혹평	-6868
김원희	-6869
히어로	-6870
▁확인중	-6871
방연	-6872
었는데	-6873
▁닮았다	-6874
▁윤계상	-6875
▁출연확정	-6876
▁땐	-6877
미쓰	-6878
번호	-6879
아지	-6880
▁당일	-6881
▁보아	-6882
▁유부남	-6883
15	-6884
아모	-6885
▁싱글	-6886
▁졸리	-6887
김형준	-6888
살연하	-6889
안효섭	-6890
▁가해자	-6891
일차	-6892
▁것이	-6893
▁주의	-6894
할게요	-6895
▁김다미	-6896
▁웃었다	-6897
영화배우	-6898
검블	-6899
신기	-6900
▁귀가	-6901
검블유	-6902
▁알고싶다	-6903
▁변명	-6904
이열음	-6905
할아버지	-6906
ly	-6907
▁샘	-6908
란드	-6909
▁TS	-6910
▁담은	-6911
▁잡아	-6912
▁지시	-6913
▁후원	-6914
김이나	-6915
열심히	-6916
성웅	-6917
승조	-6918
▁영국	-6919
▁귀요미	-6920
베르	-6921
스톱	-6922
정부	-6923
▁러브라	-6924
♥`	-6925
재미	-6926
재은	-6927
▁연봉	-6928
▁차이나	-6929
▁러브라인	-6930
마블	-6931
▁시대	-6932
우리가	-6933
초콜릿	-6934
잊지	-6935
찬호	-6936
▁초보	-6937
▁강동원	-6938
▁연기력	-6939
성동일	-6940
▁임현주	-6941
▁차인하	-6942
▁섬	-6943
버린	-6944
여전	-6945
김소현	-6946
MI	-6947
동서	-6948
우먼	-6949
▁사위	-6950
리스탈	-6951
이홍기	-6952
▁비밀연애	-6953
▁보인	-6954
▁손맛	-6955
고주원	-6956
▁박환희	-6957
▁손잡았다	-6958
▁곤	-6959
석준	-6960
이고	-6961
장례	-6962
종려	-6963
폰서	-6964
박유환	-6965
▁든든한	-6966
▁유가족	-6967
▁황금종려	-6968
▁원망	-6969
▁임송	-6970
라보게	-6971
왕빛나	-6972
▁""`	-6973
▁구설수	-6974
몰라보게	-6975
해당	-6976
▁정산	-6977
윤정수	-6978
▁유병재	-6979
4]	-6980
기를	-6981
상미	-6982
▁고정	-6983
▁분장	-6984
▁일이	-6985
▁자격	-6986
▁재력	-6987
때부터	-6988
사고소	-6989
유인나	-6990
이용진	-6991
▁못하는	-6992
▁탁재훈	-6993
?...""	-6994
LA	-6995
영과	-6996
인증	-6997
▁김창	-6998
▁빙의	-6999
▁숙소	-7000
크러쉬	-7001
멕시	-7002
▁마닷	-7003
▁울어	-7004
멕시코	-7005
경악	-7006
김도	-7007
미손	-7008
▁깜찍	-7009
▁톱모델	-7010
▁겁	-7011
사히	-7012
함없는	-7013
▁라이머	-7014
▁외로	-7015
박수진	-7016
프로포폴	-7017
14	-7018
깊은	-7019
범근	-7020
▁계정	-7021
▁나타	-7022
▁민망	-7023
▁소년	-7024
▁결혼생활	-7025
거다	-7026
한달	-7027
▁별거	-7028
▁안정	-7029
▁요절	-7030
▁참가	-7031
▁김선아	-7032
▁따뜻한	-7033
~~	-7034
성현	-7035
홈즈	-7036
▁크다	-7037
▁박하선	-7038
▁일주일	-7039
▁예뻐졌네	-7040
성희	-7041
올린	-7042
▁씨야	-7043
▁흑화	-7044
김동성	-7045
▁장가간다	-7046
비결	-7047
체조	-7048
▁XX	-7049
▁그렇게	-7050
▁맞았다	-7051
난감	-7052
덕화	-7053
▁삭발	-7054
▁위조	-7055
▁지퍼	-7056
▁차례	-7057
초고속	-7058
▁얻었다	-7059
조문	-7060
▁바이	-7061
▁이문	-7062
▁즉	-7063
의리	-7064
IFF	-7065
▁44	-7066
▁박연수	-7067
▁스페인	-7068
스포	-7069
은희	-7070
▁돌발	-7071
▁말한	-7072
장정윤	-7073
최지우	-7074
▁많았다	-7075
애린	-7076
조현	-7077
▁혼란	-7078
▁활짝	-7079
이민기	-7080
▁동료들	-7081
국경	-7082
열일	-7083
▁붙잡	-7084
▁얼짱	-7085
▁즐거운	-7086
▁논란에도	-7087
거래	-7088
들지	-7089
요일	-7090
▁놓고	-7091
▁만끽	-7092
▁번의	-7093
신아영	-7094
▁김주혁	-7095
▁박기량	-7096
▁배신감	-7097
▁생겼다	-7098
▁누워	-7099
▁훌쩍	-7100
성공적	-7101
손담비	-7102
코로나	-7103
▁김명수	-7104
▁신동엽	-7105
▁이찬오	-7106
▁성룡	-7107
배정남	-7108
▁권오중	-7109
▁부끄러운	-7110
▁T	-7111
펠트	-7112
▁거야	-7113
▁지다	-7114
▁친부	-7115
▁아이스버킷챌린지	-7116
법칙	-7117
시도	-7118
▁무한	-7119
어리더	-7120
통편집	-7121
▁좋아요	-7122
▁첫등장	-7123
덮밥	-7124
▁깨고	-7125
▁유기	-7126
▁이세영	-7127
▁PICK	-7128
정글의법칙	-7129
▁콘	-7130
남의	-7131
울까	-7132
하숙	-7133
▁친동생	-7134
졌나	-7135
회담	-7136
▁정원	-7137
▁존경	-7138
▁지숙	-7139
▁친분	-7140
▁지금도	-7141
↑'	-7142
▁어디까지	-7143
양육	-7144
지방	-7145
최진혁	-7146
▁숨진채	-7147
리가	-7148
찌개	-7149
▁시스	-7150
▁원장	-7151
전속계약	-7152
▁갔	-7153
막골	-7154
사와	-7155
추모	-7156
신지수	-7157
▁문재인	-7158
부로	-7159
▁갚아	-7160
▁모자	-7161
▁싸이	-7162
귀여	-7163
올림	-7164
인맥	-7165
무면허	-7166
했으면	-7167
시선강탈	-7168
어색	-7169
저스	-7170
칭은	-7171
▁놀이	-7172
이지니	-7173
100'	-7174
▁FNC	-7175
▁바뀌었다	-7176
▁갓	-7177
검진	-7178
뱃살	-7179
힐까	-7180
▁장모	-7181
강은탁	-7182
▁딸바보	-7183
5’	-7184
60	-7185
꽁냥	-7186
빠른	-7187
줘서	-7188
▁걸린	-7189
▁대세	-7190
▁김준호	-7191
▁이휘재	-7192
되길	-7193
▁새끼	-7194
▁통증	-7195
신수지	-7196
하와이	-7197
▁"""3	-7198
▁청룡영화상	-7199
염따	-7200
이집	-7201
투명	-7202
▁유족	-7203
안타까	-7204
▁김사랑	-7205
부부싸움	-7206
었어	-7207
완료	-7208
폭소	-7209
▁내게	-7210
▁마리	-7211
영원한	-7212
정려원	-7213
흉터	-7214
▁어울	-7215
김준희	-7216
사랑한다	-7217
▁"""4	-7218
▁스튜디오	-7219
끈한	-7220
▁자세	-7221
▁날씬	-7222
▁평창	-7223
올게요	-7224
▁김동윤	-7225
▁부르는	-7226
▁안했다	-7227
▁김원	-7228
▁예은	-7229
▁연기로	-7230
경표	-7231
병호	-7232
생연	-7233
▁느낀	-7234
▁담긴	-7235
▁바지	-7236
생연분	-7237
▁오스카	-7238
▁정미애	-7239
▁찐	-7240
지켜	-7241
god	-7242
▁욕먹	-7243
요청	-7244
중국	-7245
▁전부	-7246
▁턱선	-7247
아찔한	-7248
▁쉽	-7249
일리	-7250
▁김숙	-7251
▁쇼핑	-7252
야지	-7253
제발	-7254
소문	-7255
인형	-7256
준용	-7257
▁멋진	-7258
▁예술	-7259
▁연애중	-7260
▁참석한	-7261
▁47	-7262
▁가고	-7263
▁강간	-7264
사랑과	-7265
▁이상미	-7266
▁필라테	-7267
▁핵	-7268
아서	-7269
▁궁금	-7270
▁주변	-7271
▁진범	-7272
▁하니	-7273
▁"""20	-7274
였어	-7275
스트로	-7276
했을까	-7277
▁끝없는	-7278
리어	-7279
아프	-7280
폐지	-7281
▁계략	-7282
▁공익	-7283
맛남의	-7284
었죠	-7285
(31	-7286
▁고향	-7287
▁몰아	-7288
▁키워	-7289
윤진이	-7290
▁이제는	-7291
▁엮	-7292
▁쥬	-7293
빨리	-7294
예뻐	-7295
ᄏᄏᄏᄏ	-7296
▁살아야	-7297
▁새친구	-7298
▁윤종신	-7299
감탄	-7300
메달	-7301
업소	-7302
줄게	-7303
차원	-7304
▁나아	-7305
▁아쉽	-7306
▁챙겨	-7307
작업실	-7308
흥업소	-7309
▁이번주	-7310
▁집에서	-7311
▁플	-7312
장가	-7313
▁내부	-7314
▁뺑소니	-7315
▁허위사실	-7316
18	-7317
범한	-7318
선한	-7319
어릴	-7320
이름	-7321
정보	-7322
▁관찰	-7323
▁말도	-7324
▁스포	-7325
▁쓰러	-7326
▁이완	-7327
▁팬덤	-7328
▁영향력	-7329
▁콜라보	-7330
▁홍자매	-7331
▁커밍아웃	-7332
▁튜	-7333
남동	-7334
년에	-7335
뮤뱅	-7336
종료	-7337
▁고부	-7338
▁기획	-7339
▁민원	-7340
▁파국	-7341
▁폐쇄	-7342
▁행위	-7343
▁효도	-7344
기획사	-7345
이상설	-7346
회복무	-7347
▁뭉쳤다	-7348
▁출연에	-7349
▁당당하게	-7350
▁백상예술대상	-7351
▁有	-7352
관린	-7353
돈꽃	-7354
밍턴	-7355
불똥	-7356
불쾌	-7357
사태	-7358
설에	-7359
성숙	-7360
속옷	-7361
숫집	-7362
약식	-7363
이변	-7364
재범	-7365
초심	-7366
큐리	-7367
.8%	-7368
198	-7369
▁70	-7370
▁is	-7371
▁갸름	-7372
▁결승	-7373
▁돌을	-7374
▁마쳐	-7375
▁모의	-7376
▁소원	-7377
▁액션	-7378
▁염문	-7379
▁케빈	-7380
▁쿠바	-7381
▁튜더	-7382
▁티저	-7383
김준한	-7384
대마초	-7385
류시원	-7386
백두산	-7387
벤저스	-7388
서동주	-7389
어워즈	-7390
재계약	-7391
조수용	-7392
지라시	-7393
최정훈	-7394
JTBC	-7395
▁101	-7396
▁나온다	-7397
▁녹취록	-7398
▁던지나	-7399
▁돌아와	-7400
▁신고식	-7401
▁쓴소리	-7402
▁억울함	-7403
▁인생캐	-7404
▁장동민	-7405
▁정가은	-7406
▁차승원	-7407
▁파이널	-7408
뉴이스트	-7409
사의찬미	-7410
아이돌룸	-7411
▁점입가경	-7412
▁정다은과	-7413
▁증거인멸	-7414
""...'1	-7415
년여	-7416
닐로	-7417
다난	-7418
단순	-7419
무청	-7420
파국	-7421
▁가자	-7422
▁상위	-7423
▁씨엘	-7424
▁하자	-7425
속도로	-7426
포토엔	-7427
▁""9	-7428
▁김동성	-7429
▁김창환	-7430
▁슬렁룩	-7431
▁한초임	-7432
▁홈파티	-7433
▁박민영에	-7434
딘딘	-7435
부러	-7436
의견	-7437
▁낳은	-7438
▁다툼	-7439
▁당부	-7440
▁룰라	-7441
▁속도	-7442
▁찾기	-7443
방시혁	-7444
클릭비	-7445
]""4	-7446
▁예쁘다	-7447
▁고속도로	-7448
▁듣	-7449
전태	-7450
▁이엘	-7451
박시후	-7452
신동엽	-7453
자이너	-7454
참고인	-7455
청첩장	-7456
피의자	-7457
현장종합	-7458
▁마이웨이	-7459
겁다	-7460
주리	-7461
▁나도	-7462
티파니	-7463
하더니	-7464
▁모두가	-7465
▁방송가	-7466
▁이어진	-7467
▁이하정	-7468
엠버	-7469
▁강연	-7470
▁이행	-7471
▁주고	-7472
▁침해	-7473
반민정	-7474
토니안	-7475
▁김우석	-7476
▁베리굿	-7477
▁최영수	-7478
▁애정전선	-7479
대회	-7480
드티	-7481
언트	-7482
즈너	-7483
')"	-7484
▁단체	-7485
▁피오	-7486
▁라인업	-7487
▁""50	-7488
▁동갑내기	-7489
▁프리즈너	-7490
LO	-7491
갈비	-7492
윤형	-7493
처링	-7494
특혜	-7495
혁민	-7496
▁노엘	-7497
▁불만	-7498
▁웬디	-7499
▁작업	-7500
▁획득	-7501
김혜윤	-7502
년지기	-7503
무지개	-7504
박세미	-7505
이영아	-7506
조인성	-7507
▁계속된	-7508
▁로버트	-7509
▁루머에	-7510
▁주상욱	-7511
▁[2018	-7512
▁틀	-7513
감량	-7514
음중	-7515
▁김병	-7516
▁김보	-7517
개월차	-7518
김소희	-7519
▁감량한	-7520
▁고원희	-7521
▁김연아	-7522
▁재반박	-7523
▁정민경	-7524
▁미야와키	-7525
궁합	-7526
딱지	-7527
래원	-7528
준회	-7529
파도	-7530
▁무단	-7531
▁슬픈	-7532
김제동	-7533
전세계	-7534
▁비투비	-7535
...10	-7536
강력	-7537
직서	-7538
진운	-7539
옥주현	-7540
연기대상	-7541
가해	-7542
연상	-7543
▁나누	-7544
유세윤	-7545
▁김진아	-7546
▁아니야	-7547
▁쏘	-7548
신부	-7549
확행	-7550
▁북한	-7551
▁승부	-7552
▁이민호	-7553
▁전재산	-7554
부대	-7555
신인	-7556
왔어	-7557
잭슨	-7558
▁미리	-7559
▁비교	-7560
▁총경	-7561
최일화	-7562
300'	-7563
▁시작된	-7564
▁조영구	-7565
▁이슈메이커	-7566
그림	-7567
랜뉴	-7568
뤘다	-7569
서구	-7570
▁No	-7571
▁치명	-7572
▁뿔	-7573
전원	-7574
해킹	-7575
▁가격	-7576
▁대면	-7577
▁벗어	-7578
▁성격	-7579
★]'	-7580
닙니다	-7581
▁롤	-7582
냐고	-7583
도식	-7584
슈주	-7585
이엘	-7586
적절	-7587
▁김부	-7588
▁판단	-7589
프라이	-7590
▁공승연	-7591
▁비행기	-7592
▁서비스	-7593
▁찾아온	-7594
▁추도식	-7595
말고	-7596
벼락	-7597
▁때려	-7598
강주은	-7599
진서연	-7600
▁DNA	-7601
DM	-7602
내고	-7603
멋진	-7604
생일	-7605
지호	-7606
질투	-7607
ood	-7608
▁로봇	-7609
▁리더	-7610
립박수	-7611
이규형	-7612
▁뒤늦은	-7613
▁종방연	-7614
▁희생양	-7615
니아	-7616
화극	-7617
▁공조	-7618
▁하지원	-7619
특집	-7620
아모르	-7621
▁이규성	-7622
▁포르노	-7623
했죠	-7624
향후	-7625
▁배우로	-7626
▁이유비	-7627
▁한석규	-7628
▁하루만에	-7629
▁셔	-7630
역전	-7631
유출	-7632
이행	-7633
프러포즈	-7634
27	-7635
▁꿇	-7636
문의	-7637
윤주	-7638
정의	-7639
퀴즈	-7640
활약	-7641
▁공동	-7642
▁한숨	-7643
박선영	-7644
▁미혼모	-7645
▁사무엘	-7646
▁송승헌	-7647
판매	-7648
알리미	-7649
첫만남	-7650
▁사랑에	-7651
▁발달	-7652
▁예약	-7653
미허리	-7654
송은이	-7655
티셔츠	-7656
▁문가비	-7657
▁한현민	-7658
CJ	-7659
▁들썩	-7660
▁박훈	-7661
▁입은	-7662
▁직후	-7663
불시착	-7664
▁군복무	-7665
▁이순재	-7666
잼잼	-7667
▁세례	-7668
▁일으	-7669
고윤성	-7670
은지원	-7671
▁당사자	-7672
▁됐어요	-7673
▁장동윤	-7674
너목	-7675
변경	-7676
아오	-7677
였던	-7678
▁선포	-7679
▁유럽	-7680
▁황금종려상	-7681
SE	-7682
내용	-7683
아나	-7684
▁놀랄	-7685
▁오디션	-7686
작교	-7687
문제적	-7688
▁덕분에	-7689
공복	-7690
매경	-7691
비가	-7692
저격	-7693
▁최다	-7694
감동의	-7695
이별이	-7696
정겨운	-7697
▁삼매경	-7698
친상	-7699
▁맞추	-7700
▁시신	-7701
▁엄청	-7702
▁채운	-7703
▁됐으면	-7704
▁럽스타	-7705
▁이석철	-7706
▁카카오	-7707
▁팬들에게	-7708
테이	-7709
▁너희	-7710
한가인	-7711
황바울	-7712
▁김재중	-7713
▁임신설	-7714
▁하겠다	-7715
▁현실로	-7716
FM	-7717
석현	-7718
▁#2	-7719
톱모델	-7720
▁나오는	-7721
▁아쉬워	-7722
▁집들이	-7723
▁황교익	-7724
▁둔	-7725
강수	-7726
▁서막	-7727
▁투입	-7728
▁결혼은	-7729
▁고양이	-7730
▁분노한	-7731
▁우주안	-7732
▁"""10	-7733
강태	-7734
실패	-7735
▁갔다	-7736
▁기상	-7737
▁만찬	-7738
▁수정	-7739
▁여사	-7740
▁작성	-7741
▁전신	-7742
그럴까	-7743
이미지	-7744
▁만났을	-7745
▁밝힐까	-7746
첫방부터	-7747
종양	-7748
▁만찢	-7749
▁영혼	-7750
▁원본	-7751
▁제로	-7752
▁찰칵	-7753
김승우	-7754
문재인	-7755
▁강렬한	-7756
▁이태환	-7757
의사요한	-7758
내게	-7759
수가	-7760
유의	-7761
타운	-7762
▁다니는	-7763
대학	-7764
▁거센	-7765
▁연결	-7766
▁무서워	-7767
해쉬스완	-7768
▁형사고소	-7769
▁갑작스러운	-7770
백상	-7771
수목	-7772
유학	-7773
▁담배	-7774
▁만료	-7775
▁편취	-7776
포방터	-7777
....	-7778
▁벗었다	-7779
▁유승호	-7780
▁조은정	-7781
▁택했다	-7782
기적	-7783
소화	-7784
▁겸손	-7785
트로트	-7786
문복	-7787
▁김도	-7788
▁보러	-7789
케이스	-7790
▁차세찌	-7791
...13	-7792
니지	-7793
▁마비	-7794
▁중심	-7795
▁하면	-7796
슈스케	-7797
▁브루노	-7798
니지먼트	-7799
메이크업	-7800
울컥	-7801
키키	-7802
▁거취	-7803
▁남을	-7804
▁신애	-7805
드디어	-7806
현장의	-7807
▁700	-7808
▁재구성	-7809
▁재력가	-7810
와이키키	-7811
▁스트레스	-7812
▁아이시어	-7813
달콤	-7814
우와	-7815
▁사랑이	-7816
범준	-7817
품절	-7818
효과	-7819
▁많다	-7820
▁브이	-7821
▁파워	-7822
신재은	-7823
코리아	-7824
▁수영장	-7825
▁싶어요	-7826
▁찾아와	-7827
무송	-7828
시댁	-7829
인욱	-7830
유해진	-7831
▁할아버지	-7832
은아	-7833
▁전태	-7834
▁실화냐	-7835
봉선	-7836
비행	-7837
▁김형	-7838
▁신부와	-7839
▁풀었다	-7840
비행소녀	-7841
아침	-7842
텐츠	-7843
호준	-7844
▁견뎌	-7845
▁만큼	-7846
▁엄지온	-7847
먹다	-7848
산부	-7849
양성	-7850
체중	-7851
후보	-7852
▁오래됐다	-7853
▁홀로서기	-7854
광규	-7855
본업	-7856
꽃보다	-7857
파이브	-7858
▁비결은	-7859
▁삼남매	-7860
▁임재욱	-7861
새해	-7862
풀이	-7863
스타일	-7864
▁싶어서	-7865
▁일어나	-7866
르고	-7867
본색	-7868
▁이본	-7869
▁치과	-7870
이유는	-7871
▁화제성	-7872
▁결혼한다	-7873
▁온다	-7874
▁테러	-7875
김진아	-7876
이유비	-7877
▁미지급	-7878
▁우리가	-7879
국경없는	-7880
▁흘린	-7881
이라는	-7882
▁댓글에	-7883
▁에이스	-7884
프라이즈	-7885
우희	-7886
정상회담	-7887
▁안검하수	-7888
▁아프	-7889
▁피로	-7890
이보영	-7891
▁차기작	-7892
눈에	-7893
▁마음에	-7894
놀즈	-7895
백반	-7896
통보	-7897
장동민	-7898
정미애	-7899
▁엉뚱	-7900
▁진솔	-7901
▁꼴	-7902
것도	-7903
씨엘	-7904
▁“♥	-7905
▁만개	-7906
▁극과극	-7907
아나운서	-7908
줌마	-7909
팝핀	-7910
▁대단	-7911
황은정	-7912
팝핀현준	-7913
▁행복하길	-7914
가장	-7915
그루	-7916
▁떼창	-7917
▁앵커	-7918
...9	-7919
▁나경은	-7920
▁벌금형	-7921
▁연하남	-7922
▁월드투어	-7923
보여	-7924
저녁	-7925
드밀리	-7926
▁돌아오	-7927
사랑스러운	-7928
김숙	-7929
▁경쟁	-7930
▁점점	-7931
으니까	-7932
이혜영	-7933
임보라	-7934
▁결혼한	-7935
▁주영훈	-7936
▁헬스장	-7937
게소	-7938
무성	-7939
송현	-7940
플로	-7941
희서	-7942
▁먹을	-7943
민하	-7944
이완	-7945
..4	-7946
▁패밀리	-7947
▁황광희	-7948
(6	-7949
▁기원	-7950
▁무근	-7951
▁미래	-7952
▁전후	-7953
강동원	-7954
유재명	-7955
▁500	-7956
▁개업식	-7957
▁놀라운	-7958
▁껌	-7959
동연	-7960
어쩌	-7961
전쟁	-7962
해효	-7963
”[★	-7964
▁믿고	-7965
▁사돈	-7966
이라고	-7967
▁쓰레기	-7968
하루하루	-7969
공주	-7970
되지	-7971
예고	-7972
카락	-7973
▁독보적	-7974
희웅	-7975
▁경기	-7976
▁최대	-7977
애칭은	-7978
▁힘들다	-7979
♥,	-7980
바뀐	-7981
인의	-7982
▁부활	-7983
이순재	-7984
▁먹힐까	-7985
▁스크린	-7986
국내	-7987
다현	-7988
불패	-7989
사위	-7990
조국	-7991
▁꼬리	-7992
▁허당	-7993
시상식	-7994
▁같았다	-7995
▁박원숙	-7996
가면	-7997
▁민효린	-7998
▁박지민	-7999
탄생	-8000
▁않다	-8001
▁공개에	-8002
▁죽였다	-8003
▁오랜만에	-8004
▁43	-8005
▁알리	-8006
김민경	-8007
.."""	-8008
새댁	-8009
페이	-8010
▁33	-8011
▁나쁜	-8012
▁매각	-8013
보고싶	-8014
의현	-8015
▁끝나고	-8016
▁다둥이	-8017
누드	-8018
▁권상우	-8019
▁공약	-8020
▁마트	-8021
▁없네	-8022
▁혜빈	-8023
메오	-8024
소유	-8025
수아	-8026
인줄	-8027
초바	-8028
희경	-8029
→30	-8030
▁성장한	-8031
▁비연예인과	-8032
st	-8033
▁미친	-8034
방송인	-8035
윤시윤	-8036
▁느꼈다	-8037
▁수익금	-8038
▁아이들과	-8039
바로	-8040
했을	-8041
▁'6	-8042
▁키우	-8043
▁아름다	-8044
▁연이은	-8045
마자	-8046
어제	-8047
▁굳건	-8048
▁김성은	-8049
▁박병은	-8050
VE	-8051
민용	-8052
받을	-8053
수원	-8054
입도	-8055
유상무	-8056
▁한국인	-8057
걸스데이	-8058
모습	-8059
▁대회	-8060
▁먹은	-8061
▁자주	-8062
▁착한	-8063
승부	-8064
▁중요	-8065
▁김지원	-8066
▁시기	-8067
▁신작	-8068
어비스	-8069
하려고	-8070
▁이성민	-8071
▁휴대폰	-8072
이엘리야	-8073
▁짠	-8074
어른	-8075
▁쇄도	-8076
▁없던	-8077
▁지석진	-8078
았나	-8079
(11	-8080
▁급거	-8081
▁문화	-8082
▁부분	-8083
진태현	-8084
▁백허그	-8085
래드	-8086
출국	-8087
▁가지	-8088
▁담당	-8089
▁서현	-8090
설인아	-8091
▁각자의	-8092
▁귀여운	-8093
▁돌아올	-8094
▁아내가	-8095
▁찍었다	-8096
▁추모물결	-8097
▁옛	-8098
죗값	-8099
사랑은	-8100
스럽고	-8101
몰이	-8102
물어	-8103
사벽	-8104
아중	-8105
..★	-8106
▁동의	-8107
▁상습	-8108
▁우주	-8109
했다가	-8110
▁라이언	-8111
▁얼굴로	-8112
▁하현우	-8113
▁논	-8114
말말	-8115
민들	-8116
수치	-8117
주가	-8118
태준	-8119
토록	-8120
▁각자	-8121
▁교회	-8122
나와	-8123
난다	-8124
력자	-8125
사귀	-8126
지로	-8127
창욱	-8128
▁모를	-8129
▁악화	-8130
▁이탈	-8131
▁솔직한	-8132
▁양예원	-8133
▁위험한	-8134
▁중에도	-8135
▁지창욱	-8136
▁필요한	-8137
▁안타까워	-8138
,'	-8139
ay	-8140
▁똥	-8141
개국	-8142
구마	-8143
독자	-8144
신의	-8145
앵웅	-8146
역비	-8147
효신	-8148
▁기간	-8149
▁다행	-8150
▁미남	-8151
▁발탁	-8152
▁종현	-8153
▁착용	-8154
▁해석	-8155
사나이	-8156
웅앵웅	-8157
카메라	-8158
▁김현주	-8159
▁반민정	-8160
▁사람은	-8161
▁상대로	-8162
▁안효섭	-8163
▁죄책감	-8164
▁죄송하다	-8165
그때	-8166
드림	-8167
방탄	-8168
식어	-8169
왕좌	-8170
왜곡	-8171
주고	-8172
해결	-8173
▁65	-8174
▁기권	-8175
▁벗은	-8176
▁병역	-8177
▁설득	-8178
▁성적	-8179
▁연다	-8180
▁제외	-8181
▁차단	-8182
▁흐름	-8183
각자의	-8184
임시완	-8185
▁명백한	-8186
▁무지개	-8187
▁박성훈	-8188
▁서은수	-8189
▁성실히	-8190
▁이수역	-8191
▁방송사고	-8192
▁예비부부	-8193
벤지포르노	-8194
회복무요원	-8195
▁아이오아이	-8196
7’	-8197
▁값	-8198
▁긋	-8199
강압	-8200
견례	-8201
국면	-8202
궁연	-8203
귀화	-8204
널스	-8205
로코	-8206
방울	-8207
병역	-8208
셀프	-8209
송송	-8210
신화	-8211
쌍방	-8212
아일	-8213
월말	-8214
윤기	-8215
자진	-8216
재숙	-8217
질혜	-8218
참담	-8219
택연	-8220
황당	-8221
▁간절	-8222
▁개선	-8223
▁걸스	-8224
▁꼬치	-8225
▁내사	-8226
▁몰린	-8227
▁발산	-8228
▁분분	-8229
▁비용	-8230
▁빗발	-8231
▁석방	-8232
▁아미	-8233
▁아트	-8234
▁열창	-8235
▁원치	-8236
▁육군	-8237
▁이변	-8238
▁지각	-8239
▁지온	-8240
▁타격	-8241
▁테디	-8242
▁펭수	-8243
▁폭언	-8244
▁한지	-8245
▁휩싸	-8246
권오중	-8247
나왔어	-8248
보고서	-8249
비속어	-8250
신정환	-8251
이승훈	-8252
일방적	-8253
토토가	-8254
팬들에	-8255
황금폰	-8256
Mnet	-8257
▁'13	-8258
▁게이트	-8259
▁곽도원	-8260
▁곽정은	-8261
▁김규리	-8262
▁박서원	-8263
▁박혁권	-8264
▁보도에	-8265
▁비매너	-8266
▁살리고	-8267
▁서정희	-8268
▁염문설	-8269
▁용준형	-8270
▁이어져	-8271
▁이재훈	-8272
▁이준호	-8273
▁임시완	-8274
▁정준하	-8275
▁출연자	-8276
▁카톡방	-8277
▁탄원서	-8278
▁한다감	-8279
감빵생활	-8280
경솔했다	-8281
노코멘트	-8282
대도서관	-8283
사과에도	-8284
아일랜드	-8285
아프리카	-8286
이터널스	-8287
···""	-8288
▁걸스데이	-8289
▁결혼반지	-8290
▁떨어지는	-8291
▁복귀할까	-8292
▁브로맨스	-8293
▁악성루머	-8294
▁의혹까지	-8295
▁정해인과	-8296
▁진실게임	-8297
설렘주의보	-8298
엄마나왔어	-8299
주간아이돌	-8300
진짜사나이	-8301
▁조심스러워	-8302
▁"'2018	-8303
▁"[2018	-8304
▁읽	-8305
걸리	-8306
외모	-8307
주자	-8308
흉기	-8309
TEN	-8310
▁가치	-8311
▁막말	-8312
▁박해	-8313
▁언어	-8314
▁이욱	-8315
▁임할	-8316
▁했던	-8317
▁휘인	-8318
방울꽃	-8319
장기용	-8320
포승줄	-8321
▁김정태	-8322
♥...	-8323
면허취소	-8324
▁'2019	-8325
미녀	-8326
포옹	-8327
▁발생	-8328
▁애교	-8329
▁죽어	-8330
김재우	-8331
▁구하고	-8332
▁나이에	-8333
▁봉태규	-8334
야노시호	-8335
▁튄	-8336
꼭질	-8337
메랑	-8338
버립	-8339
정지	-8340
(10	-8341
▁각각	-8342
▁센스	-8343
▁오토	-8344
▁증가	-8345
▁털어	-8346
바꼭질	-8347
오정세	-8348
▁우아한	-8349
▁프로듀	-8350
▁한지성	-8351
러블리즈	-8352
▁성공할까	-8353
▁오토바이	-8354
관종	-8355
괴물	-8356
물의	-8357
밥집	-8358
시험	-8359
에릭	-8360
(15	-8361
▁전향	-8362
▁정면	-8363
▁혐오	-8364
송하예	-8365
프스병	-8366
▁게시물	-8367
▁반응은	-8368
▁항소심	-8369
▁최우수상	-8370
곡가	-8371
어스	-8372
음성	-8373
행동	-8374
▁단호	-8375
▁신분	-8376
▁아팠	-8377
▁자축	-8378
▁전설	-8379
▁프랑	-8380
MAMA	-8381
▁99%	-8382
▁MMA	-8383
▁나한테	-8384
▁먹었다	-8385
▁지적에	-8386
건강하게	-8387
마약혐의	-8388
▁"""5	-8389
▁대체불가	-8390
▁·	-8391
녹취	-8392
레오	-8393
복근	-8394
센터	-8395
어디	-8396
청룡	-8397
김선호	-8398
로버트	-8399
맞고소	-8400
▁싫었다	-8401
▁심경글	-8402
▁이매리	-8403
▁잇는다	-8404
▁재수사	-8405
▁하나경	-8406
사랑하는	-8407
언니네쌀롱	-8408
▁텃	-8409
▁튀	-8410
라박	-8411
상습	-8412
월에	-8413
유수	-8414
1]'	-8415
▁악재	-8416
▁죄인	-8417
▁키울	-8418
▁택한	-8419
▁텃세	-8420
▁패륜	-8421
레스트	-8422
박혁권	-8423
서은수	-8424
유지태	-8425
의매력	-8426
지금은	-8427
▁300	-8428
▁김태우	-8429
▁피처링	-8430
▁학교폭력	-8431
23	-8432
▁眞	-8433
보디	-8434
여부	-8435
출장	-8436
피드	-8437
▁‘1	-8438
▁답변	-8439
▁독자	-8440
▁입금	-8441
▁카라	-8442
▁류시원	-8443
▁쪽갈비	-8444
▁헤어져	-8445
▁논란까지	-8446
▁인스타그램	-8447
▁끈	-8448
긴급	-8449
살아	-8450
용기	-8451
▁독설	-8452
▁비슷	-8453
▁조짐	-8454
이윤미	-8455
호텔서	-8456
▁김남희	-8457
▁규	-8458
김부	-8459
명품	-8460
민망	-8461
▁그립	-8462
▁뉴스	-8463
강경헌	-8464
김명수	-8465
박은영	-8466
회장님	-8467
▁이뤘다	-8468
▁정진운	-8469
),	-8470
▁겪	-8471
고민	-8472
대만	-8473
▁37	-8474
▁in	-8475
▁마라	-8476
▁말에	-8477
▁입맛	-8478
▁쾌거	-8479
▁풀고	-8480
원만한	-8481
이지은	-8482
주만에	-8483
진지희	-8484
▁남자의	-8485
▁의문의	-8486
▁저격에	-8487
▁차인표	-8488
교포	-8489
닮은	-8490
러니	-8491
배소	-8492
설래	-8493
시술	-8494
여관	-8495
▁CP	-8496
▁밝히	-8497
▁안면	-8498
▁입열	-8499
악플에	-8500
왕설래	-8501
성근	-8502
신양	-8503
▁신화	-8504
들었다	-8505
라운드	-8506
▁감격의	-8507
▁참담한	-8508
▁100%	-8509
습관	-8510
▁or	-8511
▁배후	-8512
▁종용	-8513
▁커버	-8514
▁환한	-8515
EXID	-8516
▁광복절	-8517
▁성공적	-8518
▁최연소	-8519
부끄럽고	-8520
송종국과	-8521
1,	-8522
으려	-8523
임을	-8524
▁도중	-8525
▁배달	-8526
▁숙제	-8527
▁습관	-8528
▁프레	-8529
▁한계	-8530
이성경	-8531
▁모르는	-8532
▁박잎선	-8533
▁브랜드	-8534
▁엄마가	-8535
▁이름으로	-8536
랑이	-8537
서가	-8538
▁만세	-8539
▁뿔났다	-8540
길까	-8541
락비	-8542
장암	-8543
정호	-8544
▁김범	-8545
▁맞고	-8546
▁상관	-8547
김수미	-8548
한혜연	-8549
?”...	-8550
▁퀸	-8551
네이	-8552
데드	-8553
자택	-8554
총사	-8555
lyw	-8556
▁상승	-8557
▁열다	-8558
데드풀	-8559
▁'19	-8560
▁필로폰	-8561
▁""13	-8562
▁기립박수	-8563
▁아닙니다	-8564
lywood	-8565
감정	-8566
기동	-8567
캡틴	-8568
하얀	-8569
▁경사	-8570
▁런던	-8571
▁소율	-8572
▁이기	-8573
▁이지	-8574
장영란	-8575
장으로	-8576
▁회기동	-8577
르타	-8578
무관	-8579
분투	-8580
붙은	-8581
어린	-8582
영학	-8583
오보	-8584
종상	-8585
♥)"	-8586
최희서	-8587
▁꼬리표	-8588
수미네반찬	-8589
아모르파티	-8590
지욱	-8591
'-'	-8592
▁김기범	-8593
안젤리나	-8594
건후	-8595
시회	-8596
우린	-8597
천히	-8598
후회	-8599
▁영면	-8600
▁지속	-8601
▁이준기	-8602
2`	-8603
임송	-8604
탕수	-8605
트너	-8606
▁대리	-8607
▁삼겹	-8608
▁성인	-8609
합시다	-8610
▁여자와	-8611
▁장윤주	-8612
▁처음엔	-8613
▁텐	-8614
▁고장	-8615
▁본다	-8616
김성령	-8617
캐스터	-8618
▁솜	-8619
▁빛낸	-8620
아들과	-8621
▁김고은	-8622
▁장승조	-8623
셔널	-8624
실한	-8625
진과	-8626
참견	-8627
▁우아	-8628
▁지연	-8629
▁재확인	-8630
사랑의불시착	-8631
웅인	-8632
인권	-8633
핑계	-8634
에게도	-8635
▁막았다	-8636
▁눈물바다	-8637
▁시작부터	-8638
▁훔	-8639
측불가	-8640
▁이유리	-8641
▁원더걸스	-8642
갑작	-8643
▁리원	-8644
▁밖에	-8645
화제성	-8646
24	-8647
결영	-8648
과장	-8649
루디	-8650
조금	-8651
▁단단	-8652
이무송	-8653
▁문정원	-8654
▁포인트	-8655
▁축하물결	-8656
기소	-8657
▁벌어	-8658
▁사인	-8659
나혜미	-8660
수요미	-8661
▁김민희	-8662
▁박상민	-8663
공복자들	-8664
▁스몰웨딩	-8665
수요미식회	-8666
곰탕	-8667
위는	-8668
죽음	-8669
▁검색	-8670
▁소중	-8671
▁웃게	-8672
하연수	-8673
▁딸에게	-8674
▁송다예	-8675
▁미안해요	-8676
?’"	-8677
▁커플의	-8678
지역	-8679
→20	-8680
▁상담	-8681
▁싸운	-8682
각관계	-8683
양동근	-8684
▁누드화보	-8685
년의	-8686
모씨	-8687
▁개명	-8688
▁기럭	-8689
▁아님	-8690
▁악행	-8691
▁헤니	-8692
김규종	-8693
▁깊어진	-8694
▁청바지	-8695
▁혈액암	-8696
▁달라졌다	-8697
졌어	-8698
▁딸이	-8699
▁태연	-8700
▁벤틀리	-8701
▁왜그럴까	-8702
▁多	-8703
▁싹	-8704
잉꼬	-8705
▁가진	-8706
▁송이	-8707
김승현	-8708
운명과	-8709
▁기럭지	-8710
▁마지막까지	-8711
빈우	-8712
▁못생	-8713
▁우선	-8714
▁날벼락	-8715
▁증명한	-8716
28	-8717
느냐	-8718
허설	-8719
이민우	-8720
▁신소율	-8721
예은	-8722
좌관	-8723
▁UP	-8724
▁고개	-8725
▁그런	-8726
▁베프	-8727
▁유니	-8728
▁이이경	-8729
▁좋겠다	-8730
과거	-8731
부산	-8732
저는	-8733
적극	-8734
▁호칭	-8735
비가일	-8736
솔직히	-8737
패키지	-8738
▁옥주현	-8739
▁보디라인	-8740
로맨스패키지	-8741
▁떠났	-8742
▁피트	-8743
데없는	-8744
애틋한	-8745
▁베스트	-8746
▁찍어준	-8747
▁프라이	-8748
생아	-8749
용수	-8750
이냐	-8751
▁사칭	-8752
녹두꽃	-8753
육성재	-8754
▁유재명	-8755
▁진서연	-8756
▁겨	-8757
▁강림	-8758
▁화이	-8759
고양이	-8760
송승헌	-8761
▁살렸다	-8762
▁신애라	-8763
▁안재홍	-8764
▁추천	-8765
주셔서	-8766
▁이겨낸	-8767
▁넷	-8768
교육	-8769
두심	-8770
어떤	-8771
▁이룬	-8772
박하선	-8773
]""'	-8774
활동중단	-8775
▁크리에이터	-8776
곰신	-8777
봤다	-8778
타살	-8779
▁알린	-8780
▁형사	-8781
▁가능할까	-8782
수로	-8783
자가	-8784
전국	-8785
희은	-8786
(25	-8787
▁누군	-8788
▁예감	-8789
듬체조	-8790
▁서민정	-8791
▁최원영	-8792
아니스트	-8793
▁브이라인	-8794
▁쑥	-8795
▁책	-8796
성의	-8797
억에	-8798
..6	-8799
▁거듭	-8800
▁다리	-8801
▁뒤태	-8802
▁의원	-8803
▁하오	-8804
▁한끼	-8805
▁홀릭	-8806
반가운	-8807
특별한	-8808
▁체지방	-8809
슈퍼스타	-8810
수면	-8811
머리로	-8812
신세경	-8813
인터넷	-8814
알고	-8815
엄친	-8816
옥탑	-8817
▁동침	-8818
다둥이	-8819
▁손석구	-8820
▁이성미	-8821
▁이혜원	-8822
▁사랑해요	-8823
구의	-8824
시라	-8825
여진	-8826
▁곱창	-8827
▁노는	-8828
▁비화	-8829
▁노홍철	-8830
▁시상식서	-8831
장군	-8832
▁이의	-8833
이국주	-8834
▁태진아	-8835
▁품절녀	-8836
아빠본색	-8837
▁스펙트럼	-8838
모닝	-8839
종옥	-8840
필연	-8841
▁받는	-8842
▁홀린	-8843
▁박유나	-8844
▁연애사	-8845
▁짱	-8846
레인	-8847
새롬	-8848
은과	-8849
캠퍼	-8850
▁맥주	-8851
누리꾼	-8852
보적인	-8853
캠퍼스	-8854
▁김희애	-8855
▁볼륨감	-8856
▁레이놀즈	-8857
ck	-8858
게장	-8859
근육	-8860
보호	-8861
유발	-8862
최파	-8863
▁격려	-8864
▁이전	-8865
▁차림	-8866
김소영	-8867
김원효	-8868
최파타	-8869
'·	-8870
룩진	-8871
먼킴	-8872
별이	-8873
식사	-8874
우주	-8875
▁비율	-8876
▁웹툰	-8877
▁이모	-8878
김효진	-8879
▁얼룩진	-8880
▁연매출	-8881
▁감사합니다	-8882
녹화	-8883
제가	-8884
▁군살	-8885
▁등록	-8886
▁서운	-8887
▁작렬	-8888
▁향년	-8889
유재환	-8890
정준하	-8891
▁빛났다	-8892
▁사망설	-8893
▁생각에	-8894
▁찾아가	-8895
♥”	-8896
득녀	-8897
사에	-8898
일재	-8899
컴퍼	-8900
(20	-8901
▁소동	-8902
▁업체	-8903
조우리	-8904
컴퍼니	-8905
▁걸크러시	-8906
일국	-8907
거품	-8908
▁41	-8909
위기의	-8910
했었다	-8911
계룡	-8912
명이	-8913
영국	-8914
▁안가	-8915
남주혁	-8916
선녀전	-8917
▁무면허	-8918
▁수밖에	-8919
계룡선녀전	-8920
신지	-8921
팬심	-8922
▁발각	-8923
▁제대	-8924
▁사장님	-8925
구해줘홈즈	-8926
▁I	-8927
볶음	-8928
▁나왔	-8929
▁자처	-8930
▁전주	-8931
▁조금	-8932
김지현	-8933
피아노	-8934
▁시스루	-8935
▁정명호	-8936
사랑해요	-8937
▁등산	-8938
▁속출	-8939
▁중인	-8940
▁강주은	-8941
▁이다희	-8942
어준	-8943
이동	-8944
▁끼고	-8945
▁커피차	-8946
▁했지만	-8947
▁포상휴가	-8948
깔끔	-8949
러디	-8950
불암	-8951
시점	-8952
(30	-8953
▁드림	-8954
▁자꾸	-8955
유병재	-8956
▁묵직한	-8957
▁이성경	-8958
고맙	-8959
▁권해효	-8960
▁되찾은	-8961
이유애린	-8962
▁정민경과	-8963
지상	-8964
▁먹먹	-8965
▁아리	-8966
▁껌딱지	-8967
▁키스신	-8968
▁하희라	-8969
▁머리카락	-8970
경리	-8971
기애	-8972
의금	-8973
청하	-8974
건강한	-8975
비키니	-8976
하희라	-8977
▁롱다리	-8978
▁아들에	-8979
▁헤이지니	-8980
▁푹	-8981
불량	-8982
하냐	-8983
▁권태	-8984
아들이	-8985
우혜미	-8986
이영애	-8987
▁김소현	-8988
▁초부터	-8989
▁최연수	-8990
하룻밤만	-8991
ᄒᄒ	-8992
속도	-8993
동의	-8994
로브	-8995
(12	-8996
과감	-8997
바디	-8998
솔미	-8999
▁밀착	-9000
▁사진에	-9001
안타까운	-9002
▁사랑하는	-9003
▁맏	-9004
게더	-9005
부분	-9006
예요	-9007
▁지니	-9008
정일우	-9009
▁시한부	-9010
▁피아노	-9011
▁EXID	-9012
예비신부는	-9013
▁춘	-9014
와요	-9015
이두	-9016
▁회식	-9017
투게더	-9018
해피투게더	-9019
▁긍	-9020
세찬	-9021
통신	-9022
▁반할	-9023
▁보면	-9024
성시경	-9025
억원대	-9026
▁가능한	-9027
▁테스트	-9028
▁고마워요	-9029
▁싱	-9030
대생	-9031
방문	-9032
재이	-9033
▁인물	-9034
▁집착	-9035
▁김강훈	-9036
▁놀랐다	-9037
▁만드는	-9038
자연스러운	-9039
▁굳	-9040
라리	-9041
▁왔어	-9042
▁반했다	-9043
+'	-9044
간질	-9045
▁새로	-9046
▁병아리	-9047
느라	-9048
몰래	-9049
▁다가	-9050
▁억대	-9051
▁성동일	-9052
▁할까요	-9053
▁거침없는	-9054
▁하와이서	-9055
▁한혜진과	-9056
망생	-9057
정에	-9058
▁아쉽다	-9059
원도	-9060
▁밑	-9061
탄탄	-9062
▁뒤에	-9063
▁유학	-9064
보석함	-9065
▁없는데	-9066
▁내려놨다	-9067
기념	-9068
끼는	-9069
로상	-9070
쎄쎄	-9071
한길	-9072
▁손절	-9073
▁김래원	-9074
▁시너지	-9075
▁이덕화	-9076
젝키	-9077
▁변해	-9078
▁적응	-9079
▁쪘다	-9080
김선아	-9081
▁알려진	-9082
▁원피스	-9083
식은	-9084
▁유력	-9085
김재영	-9086
리마마	-9087
리스트	-9088
▁아니지	-9089
리마마트	-9090
문제적남자	-9091
▁늙	-9092
두나	-9093
조리	-9094
▁무서웠다	-9095
(4	-9096
심한	-9097
,""	-9098
▁메인	-9099
▁박영	-9100
▁천사	-9101
타깝다	-9102
▁임신한	-9103
했습니다	-9104
병길	-9105
식단	-9106
▁걸려	-9107
▁고집	-9108
▁없길	-9109
라이어	-9110
추성훈	-9111
▁'99	-9112
▁불편한	-9113
▁이사강	-9114
▁출연진	-9115
▁송혜교와	-9116
싱글와이프	-9117
수도	-9118
▁본방	-9119
▁빌라	-9120
▁맞지만	-9121
▁출연한	-9122
꿀잼	-9123
뉴욕	-9124
라니	-9125
지네	-9126
▁거미	-9127
▁두번	-9128
▁명예	-9129
▁무혐의	-9130
▁실시간	-9131
기간	-9132
너희	-9133
언론	-9134
집안	-9135
최강	-9136
▁봐요	-9137
▁일도	-9138
안소미	-9139
▁구원파	-9140
과는	-9141
조기	-9142
▁그랬	-9143
▁높아	-9144
▁말길	-9145
▁지아	-9146
▁후속	-9147
대통령	-9148
▁대중의	-9149
▁윤은혜	-9150
건강이상설	-9151
▁몫	-9152
연출	-9153
전과	-9154
차트	-9155
칠한	-9156
▁LG	-9157
▁넘고	-9158
▁다예	-9159
▁비방	-9160
▁어땠	-9161
▁주인	-9162
▁타인	-9163
▁판사	-9164
▁혜리	-9165
우주연	-9166
했어야	-9167
▁얼간이	-9168
▁입장문	-9169
▁있었나	-9170
▁책임질	-9171
▁촬영장	-9172
▁2000	-9173
▁뱉	-9174
▁벽	-9175
너스	-9176
무릎	-9177
보상	-9178
부장	-9179
였나	-9180
원의	-9181
이불	-9182
증명	-9183
▁가중	-9184
▁가희	-9185
▁개편	-9186
▁경리	-9187
▁광주	-9188
▁난무	-9189
▁법원	-9190
▁베일	-9191
▁아시	-9192
▁자전	-9193
▁조빈	-9194
▁조이	-9195
▁지수	-9196
▁창작	-9197
▁취할	-9198
▁한잔	-9199
매운동	-9200
응급실	-9201
▁김성재	-9202
▁김옥빈	-9203
▁보고도	-9204
▁서세원	-9205
▁수식어	-9206
▁여러분	-9207
▁오정세	-9208
▁응원이	-9209
▁카지노	-9210
▁3000	-9211
▁도움으로	-9212
▁법적조치	-9213
▁아들에게	-9214
▁지옥이다	-9215
GA	-9216
TF	-9217
↑(	-9218
검토	-9219
넬로	-9220
단장	-9221
대군	-9222
등급	-9223
뜨락	-9224
러기	-9225
리딩	-9226
무례	-9227
불임	-9228
븐연	-9229
시트	-9230
어의	-9231
유럽	-9232
자취	-9233
정태	-9234
제전	-9235
최자	-9236
친모	-9237
파장	-9238
표명	-9239
허당	-9240
협회	-9241
형진	-9242
!'"	-9243
→25	-9244
▁감자	-9245
▁고용	-9246
▁꺼낸	-9247
▁대금	-9248
▁대전	-9249
▁동맹	-9250
▁동석	-9251
▁동행	-9252
▁두산	-9253
▁론칭	-9254
▁묶인	-9255
▁미납	-9256
▁배상	-9257
▁블루	-9258
▁수빈	-9259
▁스티	-9260
▁슬퍼	-9261
▁시위	-9262
▁신변	-9263
▁신의	-9264
▁심려	-9265
▁악몽	-9266
▁앓는	-9267
▁약혼	-9268
▁어제	-9269
▁엘린	-9270
▁연호	-9271
▁옹호	-9272
▁이적	-9273
▁일관	-9274
▁지급	-9275
▁지운	-9276
▁청소	-9277
▁최자	-9278
▁탈환	-9279
▁학위	-9280
▁협업	-9281
감스트	-9282
김희원	-9283
뜨락몰	-9284
모모와	-9285
목격담	-9286
변호인	-9287
성숙한	-9288
스매치	-9289
시기사	-9290
안영미	-9291
유역비	-9292
이가은	-9293
이매리	-9294
잘못된	-9295
재결합	-9296
조덕제	-9297
천천히	-9298
최시원	-9299
타인은	-9300
팅데이	-9301
한초임	-9302
▁YES	-9303
▁가혹한	-9304
▁감스트	-9305
▁건강상	-9306
▁권혁수	-9307
▁기다림	-9308
▁김동욱	-9309
▁김유정	-9310
▁김지수	-9311
▁김학래	-9312
▁다이아	-9313
▁못하게	-9314
▁배용준	-9315
▁부회장	-9316
▁새국면	-9317
▁설인아	-9318
▁솔직함	-9319
▁수지의	-9320
▁승츠비	-9321
▁시공사	-9322
▁안준영	-9323
▁유시종	-9324
▁이가은	-9325
▁일진설	-9326
▁지나쳐	-9327
▁첫공개	-9328
▁카메라	-9329
▁티파니	-9330
▁팬들에	-9331
▁하숙집	-9332
▁해밍턴	-9333
▁활동명	-9334
미성년자	-9335
이혼소송	-9336
점입가경	-9337
펀치넬로	-9338
호러블리	-9339
▁경양식집	-9340
▁구혜선에	-9341
▁대본리딩	-9342
▁미안하고	-9343
▁부끄럽다	-9344
▁사과까지	-9345
▁성숙해진	-9346
▁성형의혹	-9347
▁이별선언	-9348
▁주인공은	-9349
▁촬영장서	-9350
▁해명에도	-9351
▁활동중단	-9352
가요대제전	-9353
가요대축제	-9354
나쁜녀석들	-9355
""···'	-9356
▁더이스트라이트	-9357
래버	-9358
리트	-9359
만은	-9360
아미	-9361
원장	-9362
유화	-9363
종서	-9364
팬덤	-9365
효영	-9366
▁결백	-9367
▁몰락	-9368
▁민우	-9369
▁빌딩	-9370
▁열풍	-9371
▁할지	-9372
김고은	-9373
두니아	-9374
욱일기	-9375
.2%"	-9376
▁고성희	-9377
▁무너진	-9378
▁바스코	-9379
▁슬리피	-9380
▁전지현	-9381
▁지효와	-9382
▁컬래버	-9383
스트리트	-9384
흉기협박	-9385
▁고부갈등	-9386
5]	-9387
넘은	-9388
맨쇼	-9389
▁딘딘	-9390
▁재일	-9391
▁주택	-9392
고은아	-9393
피니티	-9394
▁결심한	-9395
▁심은진	-9396
▁육지담	-9397
▁입장차	-9398
▁하연수	-9399
▁갸름해진	-9400
▁재일교포	-9401
경덕	-9402
막음	-9403
총경	-9404
▁반복	-9405
▁채연	-9406
무조사	-9407
아내는	-9408
▁끝났다	-9409
▁내인생	-9410
▁부메랑	-9411
▁송윤형	-9412
▁우도환	-9413
▁유재석에	-9414
▁응원하는	-9415
PL	-9416
가득	-9417
뱀뱀	-9418
외도	-9419
의적	-9420
줄이	-9421
해철	-9422
▁결코	-9423
▁꺼내	-9424
▁떳떳	-9425
▁문구	-9426
▁솔지	-9427
▁이끈	-9428
김사랑	-9429
시크릿	-9430
이다희	-9431
이야기	-9432
이찬오	-9433
정주리	-9434
▁변했다	-9435
▁선사한	-9436
숨바꼭질	-9437
연인으로	-9438
▁보고싶다	-9439
▁役	-9440
등신	-9441
망주	-9442
보살	-9443
일간	-9444
진행	-9445
차장	-9446
▁무기	-9447
▁선전	-9448
▁예의	-9449
▁인천	-9450
▁잼잼	-9451
▁크루	-9452
▁협찬	-9453
관계자	-9454
브랜뉴	-9455
시험관	-9456
오피스	-9457
윤은혜	-9458
임지연	-9459
자리에	-9460
지진희	-9461
코카인	-9462
...4	-9463
▁돌릴까	-9464
▁마쳤다	-9465
▁불투명	-9466
▁송다은	-9467
▁음란물	-9468
▁이해인	-9469
▁최정원	-9470
안검하수	-9471
치어리더	-9472
플레디스	-9473
▁경솔했다	-9474
▁발달장애	-9475
▁털어놓은	-9476
▁한결같은	-9477
아이돌학교	-9478
악성림프종	-9479
대결	-9480
반병	-9481
상위	-9482
센스	-9483
휴대	-9484
▁미담	-9485
▁않길	-9486
기상조	-9487
문희준	-9488
미안해	-9489
진흙탕	-9490
▁강은비	-9491
▁이혼에	-9492
▁진지한	-9493
▁프랑스	-9494
구속영장	-9495
블랙박스	-9496
▁떠올리며	-9497
▁장나라에	-9498
▁정해인에	-9499
▁큰아버지	-9500
다이어트로	-9501
됐나	-9502
분석	-9503
처분	-9504
추락	-9505
통화	-9506
판결	-9507
폭언	-9508
▁공범	-9509
▁설명	-9510
▁특수	-9511
▁홀로	-9512
변수미	-9513
성실히	-9514
올림픽	-9515
유수유	-9516
전소민	-9517
트리플	-9518
▁마약혐의	-9519
▁없습니다	-9520
▁카카오톡	-9521
골든디스크	-9522
아이스버킷	-9523
22	-9524
55	-9525
결경	-9526
기만	-9527
야간	-9528
종진	-9529
2)"	-9530
▁나현	-9531
▁도시	-9532
▁본선	-9533
▁시상	-9534
▁언행	-9535
▁유빈	-9536
미추리	-9537
서예지	-9538
소나무	-9539
스티벌	-9540
이장우	-9541
장제원	-9542
▁강성욱	-9543
▁비속어	-9544
▁이간질	-9545
▁지우기	-9546
마녀사냥	-9547
▁이혼조정	-9548
▁크레용팝	-9549
공포	-9550
김창	-9551
직진	-9552
▁기증	-9553
▁성립	-9554
▁의경	-9555
▁중독	-9556
▁특정	-9557
김상민	-9558
생활고	-9559
정석원	-9560
진실은	-9561
▁가족들	-9562
▁분노의	-9563
▁윤지혜	-9564
▁이혼한	-9565
프터스쿨	-9566
▁인피니트	-9567
나의아저씨	-9568
또맘	-9569
봄이	-9570
파문	-9571
의도적	-9572
허영란	-9573
▁김새론	-9574
▁누구야	-9575
▁악마의	-9576
오마이걸	-9577
돌연	-9578
리엄	-9579
재밌	-9580
▁김권	-9581
▁사내	-9582
▁예쁨	-9583
▁타고	-9584
강아지	-9585
뒤늦게	-9586
윌리엄	-9587
정재은	-9588
▁불붙은	-9589
▁서로의	-9590
▁응원해	-9591
▁이청아	-9592
▁정인선	-9593
제리	-9594
▁“4	-9595
▁독주	-9596
▁되면	-9597
▁맞나	-9598
▁월세	-9599
김새론	-9600
다니냐	-9601
손준호	-9602
▁바로잡	-9603
▁박세미	-9604
▁불이행	-9605
▁윌리엄	-9606
시는	-9607
정안	-9608
총장	-9609
▁능가	-9610
▁포르	-9611
▁한식	-9612
권다미	-9613
사랑불	-9614
스타쉽	-9615
잘생김	-9616
▁죽었다	-9617
▁키스로	-9618
막골소녀	-9619
판타지오	-9620
...11	-9621
▁결혼설에	-9622
▁여유로운	-9623
▁돈스파이크	-9624
를린	-9625
▁빼고	-9626
▁정보	-9627
강서구	-9628
김동완	-9629
쓰레기	-9630
육중완	-9631
임신중	-9632
▁결과에	-9633
▁사이일	-9634
▁위자료	-9635
▁이수진	-9636
가로채널	-9637
▁땀	-9638
간녀	-9639
병진	-9640
폭탄	-9641
▁포토	-9642
하버드	-9643
▁상간녀	-9644
▁좌	-9645
려는	-9646
새벽	-9647
여섯	-9648
프콘	-9649
▁스물	-9650
▁영정	-9651
▁튀김	-9652
라미란	-9653
이성미	-9654
▁박지성	-9655
▁올해의	-9656
▁지내는	-9657
▁프레임	-9658
전화번호	-9659
▁사망사고	-9660
▁엔드게임	-9661
▁째	-9662
김병	-9663
아픈	-9664
힘내	-9665
..♥	-9666
강렬한	-9667
박잎선	-9668
술자리	-9669
이수지	-9670
▁끝나지	-9671
▁띠동갑	-9672
▁부탁해	-9673
하이바이	-9674
사수	-9675
순이	-9676
전개	-9677
▁타는	-9678
안성기	-9679
우리는	-9680
▁남자로	-9681
▁삼둥이	-9682
너를	-9683
달콩	-9684
▁골든	-9685
▁남겨	-9686
▁선발	-9687
▁알콩	-9688
▁요즘	-9689
정혜영	-9690
코미디	-9691
▁김강우	-9692
▁동시간	-9693
▁때마다	-9694
▁이동국	-9695
▁진태현	-9696
▁알콩달콩	-9697
날두	-9698
즈아	-9699
↑..	-9700
▁끝은	-9701
▁뇌섹	-9702
▁확신	-9703
군분투	-9704
메시지	-9705
인조로	-9706
카르타	-9707
▁사랑한	-9708
이태원클라쓰	-9709
외의	-9710
폐업	-9711
김수민	-9712
김준수	-9713
류의현	-9714
지현우	-9715
▁연기자	-9716
▁블랙박스	-9717
▁스위스서	-9718
동거	-9719
약속	-9720
창피	-9721
한일	-9722
▁셔누	-9723
라이온	-9724
승무원	-9725
안재홍	-9726
흑기사	-9727
드신	-9728
▁폐업	-9729
믿기지	-9730
이미숙	-9731
▁가즈아	-9732
▁김정난	-9733
▁느껴져	-9734
▁늦둥이	-9735
▁덮	-9736
▁으	-9737
배틀	-9738
가요계	-9739
김민아	-9740
잠적설	-9741
한석준	-9742
▁만나러	-9743
▁전문의	-9744
공식전문	-9745
꺼져	-9746
꿎은	-9747
합격	-9748
▁OK	-9749
▁답답	-9750
▁이홍기	-9751
▁차현우	-9752
▁반려견과	-9753
검은	-9754
보름	-9755
비법	-9756
사라	-9757
치열	-9758
▁거냐	-9759
▁낭만	-9760
▁들키	-9761
▁비통	-9762
해졌네	-9763
▁주장에	-9764
▁큐브와	-9765
▁""21	-9766
▁신혜선에	-9767
▁팥	-9768
뭉뜬	-9769
심은	-9770
▁근육	-9771
▁팥칼	-9772
강유미	-9773
▁바라보는	-9774
▁이혼소송	-9775
▁폴	-9776
이랑	-9777
혜란	-9778
너목보	-9779
빈지노	-9780
아오이	-9781
···'	-9782
▁김아중	-9783
▁연정훈	-9784
▁이동우	-9785
▁갱	-9786
가의	-9787
각시	-9788
셋집	-9789
▁칼로	-9790
▁핑계	-9791
▁♥""	-9792
▁송은이	-9793
▁육성재	-9794
감기	-9795
국적	-9796
다방	-9797
▁아찔	-9798
▁에릭	-9799
▁전진	-9800
전혜빈	-9801
▁그래도	-9802
▁그리워	-9803
▁만찢남	-9804
▁말실수	-9805
▁파란만장	-9806
▁깬	-9807
버거	-9808
▁폭염	-9809
▁경수진	-9810
심려끼쳐	-9811
▁돌아온다	-9812
▁낮	-9813
꾸준	-9814
드로	-9815
못해	-9816
비긴	-9817
▁거래	-9818
▁진학	-9819
가정사	-9820
강현석	-9821
예능감	-9822
▁강지영	-9823
↑[	-9824
가희	-9825
김미	-9826
TMI	-9827
▁경험	-9828
▁치타	-9829
이용대	-9830
▁최준용	-9831
▁허준호	-9832
는게	-9833
타르	-9834
▁예뻤	-9835
▁집안	-9836
▁최단	-9837
김영철	-9838
▁남상미	-9839
▁카타르	-9840
명불허전	-9841
정다은과	-9842
아도	-9843
취재	-9844
▁방지	-9845
▁백일	-9846
▁불사	-9847
남연우	-9848
서지혜	-9849
장현승	-9850
EO	-9851
더쇼	-9852
▁말랐	-9853
이라니	-9854
이혼설	-9855
▁채리나	-9856
▁합시다	-9857
▁포레스트	-9858
▁쌓	-9859
안고	-9860
재팬	-9861
지게	-9862
▁늘씬	-9863
▁답글	-9864
▁딸의	-9865
▁스테	-9866
▁힘내	-9867
멜로가	-9868
우월한	-9869
장미희	-9870
▁'11	-9871
의료사고	-9872
▁박나래가	-9873
슬픈	-9874
청장	-9875
▁양준혁	-9876
▁골든디스크	-9877
각심	-9878
더블	-9879
때문	-9880
▁선명	-9881
▁설날	-9882
섬총사	-9883
▁리허설	-9884
▁김태리와	-9885
러스	-9886
우려	-9887
응팔	-9888
입고	-9889
저도	-9890
전사	-9891
▁고급	-9892
▁꿀잼	-9893
▁돋는	-9894
▁창피	-9895
▁테이	-9896
된남자	-9897
송하율	-9898
▁멕시코	-9899
▁신중히	-9900
왕이된남자	-9901
▁킹	-9902
끓는	-9903
시에	-9904
▁80	-9905
▁류승	-9906
▁소리	-9907
보좌관	-9908
▁김창완	-9909
▁슬럼프	-9910
결혼식은	-9911
수면장애	-9912
?)	-9913
블러	-9914
오래	-9915
우식	-9916
▁숨은	-9917
디브	-9918
뜨린	-9919
밀라	-9920
은빈	-9921
(?)	-9922
▁매물	-9923
예쁘다	-9924
▁엉덩이	-9925
▁제이쓴	-9926
아스트로	-9927
▁쇼케이스	-9928
▁듬	-9929
예상	-9930
테러	-9931
▁쾌척	-9932
오만석	-9933
▁미초바	-9934
▁유키스	-9935
▁정체에	-9936
으라	-9937
▁됐나	-9938
▁입주	-9939
▁포문	-9940
가시데	-9941
사히로	-9942
카라타	-9943
]""1	-9944
▁나혜미	-9945
▁홍수아	-9946
히가시데	-9947
▁""15	-9948
▁0.3%	-9949
▁마사히로	-9950
▁원조	-9951
남규리	-9952
어쩌다	-9953
▁고두심	-9954
▁불구속	-9955
▁아니라	-9956
▁줄이야	-9957
세젤예딸	-9958
▁션	-9959
깃집	-9960
원일	-9961
차차	-9962
투기	-9963
포기	-9964
홀로	-9965
힘든	-9966
▁망신	-9967
베리아	-9968
손석구	-9969
토크몬	-9970
▁배종옥	-9971
▁엄기준	-9972
▁하룻밤	-9973
우마	-9974
일도	-9975
·10	-9976
▁불쌍	-9977
▁정착	-9978
니스타	-9979
▁고맙고	-9980
▁김진우	-9981
▁이성재	-9982
아무노래	-9983
▁리듬체조	-9984
▁英	-9985
욘세	-9986
▁버려	-9987
▁별이	-9988
박연수	-9989
윤도현	-9990
▁승무원	-9991
▁이소라	-9992
▁첫키스	-9993
노래자랑	-9994
셔니스타	-9995
응원물결	-9996
▁김민서	-9997
▁정형돈	-9998
▁휴대전화	-9999
전국노래자랑	-10000
렉스	-10001
살찐	-10002
그녀말	-10003
옥탑방	-10004
▁김민석	-10005
▁내운명	-10006
▁흑역사	-10007
▁"'10	-10008
무서	-10009
입학	-10010
토화	-10011
▁'7	-10012
▁김풍	-10013
▁뮤직	-10014
▁사촌	-10015
▁잊게	-10016
▁하이	-10017
▁사건에	-10018
▁이어준	-10019
▁정도로	-10020
▁한의사	-10021
신혼부부	-10022
예비신랑은	-10023
▁셀럽파이브	-10024
다툼	-10025
▁듀엣	-10026
▁새댁	-10027
▁중학교	-10028
남은	-10029
문화	-10030
위안	-10031
이로	-10032
’[★	-10033
▁자백	-10034
▁타살	-10035
충격의	-10036
▁선택한	-10037
▁이연수	-10038
▁색	-10039
씨는	-10040
정리	-10041
▁잔치	-10042
▁키즈	-10043
서울대	-10044
▁가겠다	-10045
▁시험관	-10046
▁펜	-10047
탑골	-10048
패스	-10049
환상	-10050
▁달심	-10051
브래드	-10052
윤정희	-10053
키드밀리	-10054
70	-10055
세기의	-10056
▁선물한	-10057
▁업로드	-10058
▁인터넷	-10059
북정상회담	-10060
타지	-10061
▁고마	-10062
▁대로	-10063
▁생긴	-10064
▁세번째	-10065
▁가게	-10066
▁정정	-10067
배우로	-10068
차인하	-10069
▁만남부터	-10070
▁甲	-10071
▁씻	-10072
공항	-10073
말도	-10074
▁도촬	-10075
▁황제	-10076
김슬기	-10077
았는데	-10078
임신설	-10079
▁들키나	-10080
▁부성애	-10081
▁살인자	-10082
▁이도현	-10083
▁대체복무	-10084
그녀의사생활	-10085
llywood	-10086
▁뺏	-10087
청청	-10088
펀딩	-10089
▁내조	-10090
▁산소	-10091
▁죽은	-10092
유소영	-10093
정형돈	-10094
▁지인들과	-10095
지않	-10096
째로	-10097
▁조기	-10098
▁통통	-10099
남편이	-10100
바이벌	-10101
송일국	-10102
스케줄	-10103
아내가	-10104
정경호	-10105
좋아요	-10106
▁배우들	-10107
▁어디에	-10108
▁통째로	-10109
▁대한민국	-10110
끝내	-10111
이연	-10112
유하나	-10113
▁송윤아	-10114
▁아니면	-10115
▁뿌리	-10116
▁연휴	-10117
돈가스	-10118
하면서	-10119
▁뒷모습	-10120
해주세요	-10121
불타는청춘	-10122
갑수	-10123
여주	-10124
통통	-10125
▁쉬길	-10126
▁정아	-10127
김성은	-10128
었을까	-10129
유채영	-10130
한그루	-10131
▁모습으로	-10132
UP	-10133
격려	-10134
목숨	-10135
▁버텨	-10136
▁연말	-10137
▁예언	-10138
▁주겠다	-10139
▁시청자들	-10140
격태	-10141
냄새	-10142
발견	-10143
사인	-10144
격태격	-10145
사춘기	-10146
에이스	-10147
▁사랑의	-10148
▁선우선	-10149
▁연하와	-10150
▁샀	-10151
▁핀	-10152
석훈	-10153
선남	-10154
지면	-10155
▁팬에	-10156
이태란	-10157
▁감탄한	-10158
▁힐	-10159
렌다	-10160
정체	-10161
▁거리	-10162
]""6	-10163
▁박민하	-10164
▁설렌다	-10165
▁오상진	-10166
▁패러디	-10167
▁증세	-10168
엄마는	-10169
▁다음주	-10170
▁언제나	-10171
...23	-10172
▁권해효에	-10173
고마	-10174
실력	-10175
정식	-10176
▁채널	-10177
▁화답	-10178
노사연	-10179
▁아들이	-10180
레이먼킴	-10181
웨덴	-10182
▁85	-10183
▁애기	-10184
▁동생상	-10185
▁직업	-10186
초통령	-10187
▁건강검진	-10188
돈스파이크	-10189
거나	-10190
모임	-10191
▁화촉	-10192
▁드러났다	-10193
가든	-10194
진담	-10195
▁올려	-10196
글로브	-10197
박형식	-10198
즐거운	-10199
▁神	-10200
박한	-10201
쓰총	-10202
잣집	-10203
▁은인	-10204
▁화나	-10205
얼마나	-10206
꾸는	-10207
탐정	-10208
▁졌다	-10209
끄러워	-10210
엔터와	-10211
▁동시에	-10212
▁만들기	-10213
▁이혼설	-10214
ve	-10215
가자	-10216
지가	-10217
▁그때	-10218
▁근데	-10219
▁장식	-10220
맛있는	-10221
이두희	-10222
베프	-10223
▁어떨	-10224
▁자퇴	-10225
▁토니	-10226
▁한강	-10227
김정은	-10228
달달한	-10229
▁김미경	-10230
▁사돈연습	-10231
김기	-10232
너의	-10233
▁가려	-10234
▁건후	-10235
▁안한	-10236
▁애들	-10237
▁CEO	-10238
▁믿기지	-10239
▁사망한	-10240
▁무단이탈	-10241
보우	-10242
▁대만	-10243
나경은	-10244
▁김지우	-10245
▁스타트	-10246
▁신다은	-10247
▁지친다	-10248
▁출산후	-10249
레인보우	-10250
▁졌	-10251
명훈	-10252
불출	-10253
쐈다	-10254
▁39	-10255
▁아역	-10256
▁유담	-10257
▁조하나	-10258
대의	-10259
행진	-10260
(29	-10261
이지혜	-10262
태진아	-10263
▁김민주	-10264
▁설레는	-10265
끔찍	-10266
독립	-10267
흔들	-10268
ᄏᄏᄏ	-10269
황보라	-10270
▁카메오	-10271
▁타이틀	-10272
준엽	-10273
▁즐긴	-10274
개월간	-10275
▁연세대	-10276
더는	-10277
형수	-10278
▁꿀이	-10279
▁한명	-10280
▁기다리	-10281
본다	-10282
▁55	-10283
▁나선	-10284
▁주는	-10285
최병길	-10286
▁고지용	-10287
▁없어서	-10288
▁마음으로	-10289
▁힙	-10290
겨서	-10291
나르	-10292
생방	-10293
짧은	-10294
팽이	-10295
▁35	-10296
노홍철	-10297
▁메이비	-10298
▁없어요	-10299
▁아니지만	-10300
기영	-10301
타기	-10302
▁무시	-10303
▁방출	-10304
▁신선	-10305
▁안긴	-10306
▁이상한	-10307
른다	-10308
시박	-10309
아쉬	-10310
은서	-10311
축가	-10312
▁시켜	-10313
▁옆에	-10314
가족들	-10315
권나라	-10316
임성빈	-10317
▁평범한	-10318
▁결론	-10319
▁바닥	-10320
▁쉽게	-10321
▁이쁘	-10322
▁투자	-10323
유혜원	-10324
▁맛있는	-10325
가을	-10326
다면	-10327
▁일찍	-10328
▁풀어	-10329
김하늘	-10330
비와이	-10331
슬플때	-10332
었어요	-10333
▁배수진	-10334
▁몽	-10335
국에	-10336
그럼	-10337
스틴	-10338
▁그린	-10339
▁이들	-10340
▁찍고	-10341
▁계략에	-10342
▁결혼해요	-10343
▁옮	-10344
별거	-10345
이든	-10346
져야	-10347
트남	-10348
▁당장	-10349
▁소속	-10350
▁죗값	-10351
자기야	-10352
황현희	-10353
▁예뻐진	-10354
말라	-10355
▁보상	-10356
▁부추	-10357
▁불임	-10358
▁저질	-10359
꿈같은	-10360
슬란드	-10361
오연수	-10362
▁데뷔조	-10363
▁쏟아져	-10364
▁양미라	-10365
▁깡	-10366
개장	-10367
다녀	-10368
등감	-10369
썩은	-10370
아파	-10371
이길	-10372
주지	-10373
질까	-10374
효자	-10375
▁몰고	-10376
▁무지	-10377
▁빵빵	-10378
▁이훈	-10379
가족과	-10380
이미도	-10381
▁두려워	-10382
▁케이윌	-10383
▁프리즘	-10384
▁제작진이	-10385
▁맘	-10386
나야	-10387
대사	-10388
라기	-10389
러리	-10390
믿고	-10391
시피	-10392
▁군인	-10393
▁무고	-10394
▁박살	-10395
▁배역	-10396
▁본질	-10397
▁빌려	-10398
▁애먼	-10399
▁트롯	-10400
▁단발로	-10401
▁미안한	-10402
보고싶다	-10403
▁""30	-10404
▁낯	-10405
▁액	-10406
거탑	-10407
내는	-10408
수다	-10409
수의	-10410
지길	-10411
체적	-10412
▁나간	-10413
▁내연	-10414
▁성금	-10415
▁자랐	-10416
▁차트	-10417
▁박수진	-10418
▁시즌제	-10419
▁신동미	-10420
▁없었던	-10421
▁정신과	-10422
▁좋았다	-10423
▁패션쇼	-10424
▁팬들과	-10425
야간개장	-10426
우주연상	-10427
▁봐주세요	-10428
▁이병헌과	-10429
▁프로듀서	-10430
▁피해자와	-10431
결방	-10432
겼나	-10433
교사	-10434
나코	-10435
네어	-10436
대신	-10437
도망	-10438
독점	-10439
라드	-10440
사귄	-10441
설레	-10442
성운	-10443
셀러	-10444
시성	-10445
야구	-10446
이한	-10447
일부	-10448
준다	-10449
최대	-10450
타곤	-10451
▁가세	-10452
▁강인	-10453
▁고위	-10454
▁관여	-10455
▁권유	-10456
▁그럼	-10457
▁남아	-10458
▁달게	-10459
▁대작	-10460
▁독일	-10461
▁방조	-10462
▁배치	-10463
▁성과	-10464
▁세끼	-10465
▁실현	-10466
▁싸울	-10467
▁악용	-10468
▁안와	-10469
▁엔터	-10470
▁연관	-10471
▁전성	-10472
▁티켓	-10473
▁학대	-10474
▁한밤	-10475
▁훈련	-10476
김요한	-10477
김학의	-10478
다음주	-10479
매일이	-10480
승리가	-10481
아빠로	-10482
질랜드	-10483
착하게	-10484
책사유	-10485
투성이	-10486
하기도	-10487
할까봐	-10488
...8	-10489
▁강경헌	-10490
▁김은숙	-10491
▁다섯째	-10492
▁돌아갈	-10493
▁떠나는	-10494
▁만화책	-10495
▁박지훈	-10496
▁밖으로	-10497
▁방송서	-10498
▁사이로	-10499
▁신부는	-10500
▁안에서	-10501
▁엄정화	-10502
▁이미숙	-10503
▁인증한	-10504
▁작품상	-10505
▁장제원	-10506
▁주세요	-10507
▁준비한	-10508
▁공익제보	-10509
▁디스패치	-10510
▁만들었다	-10511
▁불매운동	-10512
▁소속사도	-10513
▁양성반응	-10514
▁제작진도	-10515
▁회사원과	-10516
FA	-10517
LM	-10518
▁끄	-10519
▁쫄	-10520
▁콤	-10521
가오	-10522
각종	-10523
결승	-10524
공급	-10525
공학	-10526
궜다	-10527
난동	-10528
닉쿤	-10529
달만	-10530
담배	-10531
당혹	-10532
도덕	-10533
둘까	-10534
뒷목	-10535
랜서	-10536
레코	-10537
무로	-10538
별도	-10539
봉길	-10540
부당	-10541
비상	-10542
산중	-10543
선행	-10544
스택	-10545
시터	-10546
식증	-10547
식품	-10548
알쓸	-10549
야반	-10550
억측	-10551
엠넷	-10552
열매	-10553
와직	-10554
운택	-10555
월초	-10556
이욱	-10557
자실	-10558
적합	-10559
절망	-10560
주빈	-10561
주최	-10562
지암	-10563
진상	-10564
참회	-10565
첩첩	-10566
충제	-10567
트맨	-10568
패륜	-10569
평양	-10570
하온	-10571
현선	-10572
후임	-10573
휘인	-10574
-20	-10575
..”	-10576
19'	-10577
4',	-10578
JYJ	-10579
VOD	-10580
day	-10581
▁CJ	-10582
▁간곡	-10583
▁검출	-10584
▁계산	-10585
▁공통	-10586
▁교복	-10587
▁구할	-10588
▁두절	-10589
▁드럼	-10590
▁디오	-10591
▁따귀	-10592
▁뚫고	-10593
▁로아	-10594
▁만행	-10595
▁맏형	-10596
▁뭔들	-10597
▁밟나	-10598
▁배틀	-10599
▁번역	-10600
▁법인	-10601
▁부문	-10602
▁선정	-10603
▁스캠	-10604
▁엄중	-10605
▁영비	-10606
▁오류	-10607
▁오후	-10608
▁인멸	-10609
▁일러	-10610
▁입점	-10611
▁전제	-10612
▁종손	-10613
▁진땀	-10614
▁체류	-10615
▁체제	-10616
▁최악	-10617
▁최후	-10618
▁축전	-10619
▁출간	-10620
▁충돌	-10621
▁투기	-10622
▁팽팽	-10623
▁폐막	-10624
▁표창	-10625
▁행방	-10626
▁회원	-10627
▁훼손	-10628
강압적	-10629
경솔해	-10630
경찰에	-10631
고소인	-10632
국숫집	-10633
기다려	-10634
김재환	-10635
남지현	-10636
달팽이	-10637
당사자	-10638
동승자	-10639
떡볶이	-10640
레전드	-10641
레코즈	-10642
미국서	-10643
바스코	-10644
베이비	-10645
병무청	-10646
본인도	-10647
사과문	-10648
사직서	-10649
성범죄	-10650
스택스	-10651
승리는	-10652
싸늘한	-10653
아직은	-10654
악의적	-10655
안재욱	-10656
엠스테	-10657
여동생	-10658
옹성우	-10659
와직염	-10660
요정의	-10661
유영현	-10662
유튜버	-10663
윤병호	-10664
음란물	-10665
이현주	-10666
작은집	-10667
정선아	-10668
정운택	-10669
정원중	-10670
조장혁	-10671
지나친	-10672
칼치기	-10673
태사자	-10674
팬클럽	-10675
폭로전	-10676
프엑스	-10677
현지먹	-10678
'"""	-10679
...#	-10680
..10	-10681
.3%"	-10682
▁‘11	-10683
▁경찰서	-10684
▁고경표	-10685
▁곽윤기	-10686
▁김주헌	-10687
▁김학의	-10688
▁김호영	-10689
▁남보라	-10690
▁논의중	-10691
▁달궜다	-10692
▁데이지	-10693
▁도전장	-10694
▁먹으며	-10695
▁무대에	-10696
▁바카라	-10697
▁방시혁	-10698
▁사문서	-10699
▁사태에	-10700
▁상반기	-10701
▁씨제스	-10702
▁아내로	-10703
▁아들의	-10704
▁아시아	-10705
▁알렸다	-10706
▁여친에	-10707
▁영광의	-10708
▁오종혁	-10709
▁우창범	-10710
▁위하준	-10711
▁유망주	-10712
▁유종의	-10713
▁윤주빈	-10714
▁이재영	-10715
▁이주연	-10716
▁자전거	-10717
▁정석원	-10718
▁주예지	-10719
▁진기주	-10720
▁토크쇼	-10721
▁하고파	-10722
▁핫이슈	-10723
▁협박에	-10724
▁홍민지	-10725
▁황성재	-10726
▁황현민	-10727
걸크러시	-10728
공식사과	-10729
구도쉘리	-10730
김민희와	-10731
다사다난	-10732
라이관린	-10733
물어보살	-10734
별책부록	-10735
어보고서	-10736
얼짱시대	-10737
유흥업소	-10738
입장전문	-10739
참견시점	-10740
첩첩산중	-10741
초심으로	-10742
침대에서	-10743
파란만장	-10744
피해자에	-10745
하얀거탑	-10746
항암치료	-10747
황하나와	-10748
!!"""	-10749
""➝""	-10750
▁""17	-10751
▁""22	-10752
▁"'20	-10753
▁Mnet	-10754
▁대통령과	-10755
▁데스매치	-10756
▁드러냈다	-10757
▁등장부터	-10758
▁매니저에	-10759
▁멤버들과	-10760
▁박유천의	-10761
▁방송부터	-10762
▁백반집에	-10763
▁보디슈트	-10764
▁부인에도	-10765
▁비주얼에	-10766
▁서로에게	-10767
▁스타일도	-10768
▁신변보호	-10769
▁신혼일기	-10770
▁쓰러졌다	-10771
▁아이유의	-10772
▁영정사진	-10773
▁이상행동	-10774
▁이장우에	-10775
▁자살시도	-10776
▁자필편지	-10777
▁지키고파	-10778
▁청년구단	-10779
▁태도논란	-10780
▁평양공연	-10781
▁할머니와	-10782
네어레코즈	-10783
맛남의광장	-10784
서프라이즈	-10785
아이오아이	-10786
▁매니지먼트	-10787
▁생일파티에	-10788
▁음원사재기	-10789
숲속의작은집	-10790
깅스	-10791
년기	-10792
조차	-10793
지에	-10794
혼인	-10795
▁넘지	-10796
▁분통	-10797
물오른	-10798
박준형	-10799
사기꾼	-10800
시간만	-10801
안시성	-10802
영원히	-10803
유치장	-10804
전종서	-10805
정상수	-10806
차민근	-10807
최태준	-10808
하려다	-10809
▁갈수록	-10810
▁결혼에	-10811
▁궁금증	-10812
▁김기덕	-10813
▁꺾었다	-10814
▁뉴욕서	-10815
▁망가지	-10816
▁멤버는	-10817
▁박은지	-10818
▁우효광	-10819
▁위원장	-10820
▁윤태영	-10821
▁의문점	-10822
▁이요한	-10823
▁정소민	-10824
▁차민근	-10825
▁함께할	-10826
...16	-10827
▁동반여행	-10828
▁반전매력	-10829
▁부모된다	-10830
▁행복하게	-10831
▁잊어주세요	-10832
Go	-10833
디패	-10834
사상	-10835
영업	-10836
의환	-10837
(13	-10838
▁봉사	-10839
▁업계	-10840
▁중지	-10841
▁차원	-10842
빅플로	-10843
야겠다	-10844
의환향	-10845
채리나	-10846
추측성	-10847
코걸이	-10848
후조리	-10849
▁생각나	-10850
▁욕실서	-10851
▁준비중	-10852
▁해명에	-10853
▁활동은	-10854
박민영과	-10855
▁웨딩사진	-10856
▁슈퍼주니어	-10857
감당	-10858
골당	-10859
효성	-10860
▁버는	-10861
▁이을	-10862
▁지하	-10863
▁추돌	-10864
▁해피	-10865
김영광	-10866
김정균	-10867
오버립	-10868
▁건드리	-10869
▁구준회	-10870
▁납골당	-10871
▁당분간	-10872
▁문제의	-10873
▁우승자	-10874
▁이의정	-10875
동갑내기	-10876
섹시하지	-10877
▁세무조사	-10878
▁뮤	-10879
덕철	-10880
들썩	-10881
로케	-10882
에버	-10883
▁반갑	-10884
▁실감	-10885
▁협조	-10886
김민주	-10887
막음용	-10888
심각한	-10889
▁영원히	-10890
▁원했다	-10891
▁이승훈	-10892
사람들이	-10893
하의실종	-10894
▁나비효과	-10895
▁디자이너	-10896
▁루프스병	-10897
▁추가폭로	-10898
♡'	-10899
로봇	-10900
몰아	-10901
주대	-10902
포고	-10903
(19	-10904
..#	-10905
▁51	-10906
▁韓日	-10907
▁낙점	-10908
▁무명	-10909
▁물씬	-10910
▁상표	-10911
▁용병	-10912
▁의무	-10913
▁일일	-10914
▁징계	-10915
▁통감	-10916
안선영	-10917
이서진	-10918
▁김경진	-10919
▁김성주	-10920
▁눈물에	-10921
▁사장에	-10922
▁않기로	-10923
▁어울려	-10924
▁유일한	-10925
▁작곡가	-10926
제작진도	-10927
▁구혜선은	-10928
▁선전포고	-10929
CF	-10930
·4	-10931
근영	-10932
답답	-10933
사죄	-10934
신청	-10935
실형	-10936
정비	-10937
포함	-10938
호연	-10939
▁“6	-10940
▁늦은	-10941
▁대접	-10942
▁민아	-10943
▁박스	-10944
▁반문	-10945
▁부를	-10946
▁부실	-10947
▁성난	-10948
▁전국	-10949
녹취록	-10950
독보적	-10951
신해철	-10952
워너비	-10953
전부터	-10954
정은채	-10955
최준희	-10956
▁50%	-10957
▁김혜선	-10958
▁아시안	-10959
▁이필립	-10960
▁장소연	-10961
▁팬클럽	-10962
상처받은	-10963
의식불명	-10964
자이언트	-10965
비긴어게인	-10966
더이스트라이트	-10967
몰랐	-10968
배신	-10969
복통	-10970
점검	-10971
출소	-10972
회사	-10973
휴식	-10974
·19	-10975
▁'9	-10976
▁동네	-10977
▁메모	-10978
▁싸워	-10979
▁연발	-10980
막걸리	-10981
베스트	-10982
비결은	-10983
장도연	-10984
푸스병	-10985
▁때까지	-10986
▁박수영	-10987
▁성은채	-10988
▁월화극	-10989
▁응원에	-10990
전문포함	-10991
▁살인사건	-10992
▁잠자리에	-10993
KB	-10994
세창	-10995
자신	-10996
키로	-10997
▁42	-10998
김철민	-10999
네이션	-11000
린사모	-11001
샤이니	-11002
영화계	-11003
▁고은아	-11004
▁내려놓	-11005
▁대종상	-11006
▁도시락	-11007
▁무색한	-11008
▁박은혜	-11009
▁불화설	-11010
▁완성형	-11011
▁이창섭	-11012
▁지금은	-11013
▁채웠다	-11014
연예활동	-11015
▁동방불패	-11016
근황	-11017
류승	-11018
빛이	-11019
상대	-11020
승진	-11021
재균	-11022
재로	-11023
▁독려	-11024
▁무례	-11025
▁이보	-11026
▁자료	-11027
▁저녁	-11028
때아닌	-11029
만화책	-11030
부담감	-11031
우도환	-11032
이하이	-11033
▁케미로	-11034
▁황재균	-11035
이슈메이커	-11036
극비	-11037
돌림	-11038
모녀	-11039
민폐	-11040
변명	-11041
윤발	-11042
정자	-11043
탈락	-11044
▁의연	-11045
▁진리	-11046
갑자기	-11047
김도훈	-11048
리스틴	-11049
▁대반전	-11050
▁도전기	-11051
▁말렸다	-11052
▁조성모	-11053
▁홀렸다	-11054
애정전선	-11055
▁"""6	-11056
▁뒷이야기	-11057
▁솔로데뷔	-11058
▁취중고백	-11059
▁낸	-11060
각서	-11061
동훈	-11062
보도	-11063
참석	-11064
체스	-11065
한창	-11066
▁HB	-11067
▁도착	-11068
▁뭐가	-11069
썸바디	-11070
양정아	-11071
↑...	-11072
▁간이식	-11073
▁교육법	-11074
스트레스	-11075
▁젝스키스	-11076
소시	-11077
궁전의	-11078
누구냐	-11079
마녀전	-11080
삼남매	-11081
엉덩이	-11082
이길래	-11083
▁구본승	-11084
▁얼굴이	-11085
▁외국인	-11086
의미심장	-11087
▁김서형에	-11088
▁설왕설래	-11089
▁키즈카페	-11090
▁폭풍눈물	-11091
알함브라궁전의	-11092
마트	-11093
수익	-11094
심의	-11095
하경	-11096
→62	-11097
▁개념	-11098
▁산책	-11099
▁수줍	-11100
▁신지	-11101
▁올라	-11102
▁죽고	-11103
류현경	-11104
바라지	-11105
▁못됐다	-11106
▁어린이	-11107
▁능가하는	-11108
먹고다니냐	-11109
착한마녀전	-11110
▁몬스타엑스	-11111
가짜	-11112
결정	-11113
나게	-11114
대디	-11115
소감	-11116
직구	-11117
평창	-11118
▁각서	-11119
▁돌변	-11120
▁열까	-11121
▁장소	-11122
엄태웅	-11123
▁눈물과	-11124
▁운영자	-11125
▁이선미	-11126
▁지주연	-11127
▁가족여행	-11128
밥은먹고다니냐	-11129
동기	-11130
시의	-11131
움이	-11132
"",	-11133
▁69	-11134
▁멘붕	-11135
더이상	-11136
박웃음	-11137
생방송	-11138
손지창	-11139
압도적	-11140
▁김도균	-11141
▁조승우	-11142
▁했어요	-11143
▁홍콩서	-11144
▁휴게소	-11145
태도논란	-11146
▁도와달라	-11147
▁유동근에	-11148
▁잠정하차	-11149
ST	-11150
▁뺀	-11151
불호	-11152
인랑	-11153
AMA	-11154
▁가까	-11155
▁원인	-11156
▁주가	-11157
네티즌	-11158
▁OST	-11159
▁남주혁	-11160
▁숨겨진	-11161
▁이시영	-11162
▁전남편	-11163
▁호불호	-11164
▁MAMA	-11165
▁김사무엘	-11166
건희	-11167
깜놀	-11168
더스	-11169
사용	-11170
아냐	-11171
타이	-11172
택배	-11173
▁간직	-11174
▁반환	-11175
여전한	-11176
이용규	-11177
탕수육	-11178
▁송건희	-11179
▁친누나	-11180
대한민국	-11181
▁살아있다	-11182
▁시부모님	-11183
...""2	-11184
과수	-11185
기본	-11186
능력	-11187
주신	-11188
하에	-11189
현금	-11190
▁34	-11191
▁강해	-11192
▁되다	-11193
▁속여	-11194
▁초청	-11195
뒷담화	-11196
방송서	-11197
손호준	-11198
▁얼굴에	-11199
▁유시민	-11200
▁유정호	-11201
예측불가	-11202
▁결혼까지	-11203
스페인하숙	-11204
1'	-11205
너랑	-11206
유혹	-11207
즈니	-11208
ove	-11209
▁가담	-11210
▁노숙	-11211
▁이웃	-11212
▁치를	-11213
장희진	-11214
▁게시글	-11215
▁이중고	-11216
▁청순미	-11217
연락두절	-11218
▁깨달았다	-11219
▁댄	-11220
잘자	-11221
해연	-11222
▁46	-11223
▁나를	-11224
▁주방	-11225
▁행진	-11226
배성재	-11227
차범근	-11228
▁당나귀	-11229
▁모성애	-11230
▁보내는	-11231
▁신현준	-11232
▁생각했다	-11233
▁자카르타	-11234
그는	-11235
까요	-11236
도그	-11237
부성	-11238
이가	-11239
핸섬	-11240
화정	-11241
희망	-11242
▁귀는	-11243
▁생명	-11244
▁울림	-11245
▁적용	-11246
▁탄탄	-11247
눈에서	-11248
이지호	-11249
▁한혜진의	-11250
슬어	-11251
위협	-11252
형탁	-11253
▁농구	-11254
▁드릴	-11255
곽정은	-11256
박육아	-11257
슬어생	-11258
이거즈	-11259
▁김태균	-11260
▁변천사	-11261
▁집공개	-11262
소속사와	-11263
악플의밤	-11264
▁입장발표	-11265
모차	-11266
▁광대	-11267
▁믿을	-11268
▁퀴즈	-11269
▁허민	-11270
박은혜	-11271
사실상	-11272
▁말랐어	-11273
▁삼겹살	-11274
▁유모차	-11275
▁하지마	-11276
계속되는	-11277
21	-11278
곡진	-11279
’..	-11280
▁들고	-11281
▁체험	-11282
▁친형	-11283
▁한도	-11284
▁허니	-11285
강민경	-11286
허준호	-11287
▁맹유나	-11288
▁속에서	-11289
▁파트너	-11290
▁티격태격	-11291
(26	-11292
퀘스트	-11293
?..'	-11294
▁공백기	-11295
▁박선영	-11296
▁안았다	-11297
▁임수정	-11298
▁개미허리	-11299
▁뜬금없는	-11300
러브스토리	-11301
왕국	-11302
▁광장	-11303
▁웃고	-11304
▁위반	-11305
▁잘해	-11306
박성웅	-11307
불화설	-11308
▁최수정	-11309
▁土	-11310
아역	-11311
▁GD	-11312
▁그라	-11313
▁리쌍	-11314
▁하락	-11315
사랑을	-11316
한지혜	-11317
▁130	-11318
▁김민경	-11319
▁부러워	-11320
겨울왕국	-11321
▁실종신고	-11322
▁표정으로	-11323
개성	-11324
내한	-11325
모범	-11326
장르	-11327
프릴	-11328
▁끝날	-11329
▁처리	-11330
▁환경	-11331
미모의	-11332
▁선택은	-11333
▁스폰서	-11334
▁이룰까	-11335
▁이민우	-11336
▁커플링	-11337
크리스탈	-11338
▁딜	-11339
교체	-11340
극적	-11341
보현	-11342
시오	-11343
여우	-11344
용실	-11345
존감	-11346
▁탈모	-11347
사이코	-11348
송유빈	-11349
아이는	-11350
원피스	-11351
전문가	-11352
▁신경전	-11353
마흔	-11354
요리	-11355
이도	-11356
이모	-11357
함에	-11358
▁녹음	-11359
▁양심	-11360
▁응답	-11361
▁할배	-11362
간미연	-11363
막영애	-11364
박수홍	-11365
▁기다린	-11366
▁이제훈	-11367
▁그라나다	-11368
▁연하남과	-11369
...2018	-11370
▁끓	-11371
경아	-11372
념식	-11373
누군	-11374
망신	-11375
혜인	-11376
▁정든	-11377
▁제창	-11378
▁후송	-11379
각시별	-11380
오늘의	-11381
이지훈	-11382
▁107	-11383
▁가슴에	-11384
▁발리서	-11385
▁지킬까	-11386
▁팬들도	-11387
▁멕시코서	-11388
▁반대에도	-11389
▁키스사진	-11390
여우각시별	-11391
연지	-11392
차례	-11393
→12	-11394
▁가면	-11395
▁수십	-11396
▁앙상	-11397
▁인한	-11398
▁카드	-11399
꾸준히	-11400
손세이	-11401
트루디	-11402
▁이상의	-11403
▁함연지	-11404
▁후배들	-11405
손세이셔널	-11406
소이	-11407
자유	-11408
▁맺은	-11409
▁사생	-11410
▁이게	-11411
▁이찬	-11412
▁평소	-11413
김성수	-11414
김인석	-11415
마음의	-11416
밥먹다	-11417
정진운	-11418
핫이슈	-11419
▁사귀어	-11420
그레이드	-11421
▁업그레이드	-11422
▁니	-11423
기서	-11424
김세	-11425
꺼풀	-11426
사장	-11427
짜리	-11428
→11	-11429
▁곤혹	-11430
▁됐네	-11431
▁멘트	-11432
▁살게	-11433
▁살쪄	-11434
▁순삭	-11435
▁어워	-11436
▁좀비	-11437
이윤지	-11438
▁정승우	-11439
시베리아	-11440
경환	-11441
남한	-11442
악인	-11443
▁온도	-11444
▁유괴	-11445
▁입영	-11446
견미리	-11447
하루에	-11448
]""♥	-11449
▁만남에	-11450
▁초강수	-11451
▁커플룩	-11452
▁안젤리나	-11453
미스코리아	-11454
▁숲	-11455
만료	-11456
싸울	-11457
▁방법	-11458
▁스케	-11459
▁자극	-11460
▁제왕	-11461
긴장감	-11462
으셨다	-11463
▁빠졌다	-11464
▁이겼다	-11465
▁전남친	-11466
프로골퍼	-11467
정규	-11468
창력	-11469
▁꿈꿔	-11470
▁잉꼬	-11471
세연하	-11472
어났다	-11473
▁곽부성	-11474
▁브라이	-11475
▁사람이	-11476
▁""18	-11477
런트	-11478
몸짱	-11479
아재	-11480
자와	-11481
잡은	-11482
학대	-11483
▁따뜻	-11484
▁전공	-11485
여진구	-11486
장모님	-11487
탤런트	-11488
▁김정균	-11489
▁윤주만	-11490
▁이일재	-11491
▁경찰청장	-11492
↑""...	-11493
OO	-11494
대장	-11495
리면	-11496
씨네	-11497
정산	-11498
팀목	-11499
▁유쾌	-11500
▁버팀목	-11501
▁스케일	-11502
씨네타운	-11503
빈소	-11504
쁘띠	-11505
솔이	-11506
시동	-11507
씨가	-11508
황보	-11509
▁와서	-11510
수목극	-11511
▁곽선영	-11512
▁속으로	-11513
▁완전히	-11514
▁이정진	-11515
▁톱스타	-11516
부녀	-11517
애교	-11518
흐뭇	-11519
▁김장	-11520
▁총선	-11521
마미손	-11522
축하해	-11523
▁길해연	-11524
▁서연우	-11525
▁윤현민	-11526
아이시어	-11527
▁산다라박	-11528
]`	-11529
동무	-11530
사격	-11531
지병	-11532
치승	-11533
톡투	-11534
▁거의	-11535
♥︎’	-11536
톡투유	-11537
????	-11538
▁강성연	-11539
▁대하는	-11540
▁천만원	-11541
▁어깨동무	-11542
▁이어지는	-11543
동현	-11544
변화	-11545
찬성	-11546
▁살려	-11547
▁어찌	-11548
▁자란	-11549
▁정형	-11550
근육통	-11551
이예림	-11552
▁김이나	-11553
▁김준현	-11554
▁이재황	-11555
▁인생의	-11556
유근육통	-11557
▁정형외과	-11558
▁찾아갔다	-11559
▁최종선택	-11560
도한	-11561
사로	-11562
월로	-11563
▁안다	-11564
였지만	-11565
▁변신한	-11566
▁유세윤	-11567
▁포착된	-11568
보화	-11569
우면	-11570
의점	-11571
▁필구	-11572
▁말하지	-11573
▁받는다	-11574
▁영예의	-11575
▁황찬호	-11576
▁부친상에	-11577
봉사	-11578
은광	-11579
▁두렵	-11580
▁멈추	-11581
▁안할	-11582
김동욱	-11583
신소율	-11584
피자집	-11585
▁열렸다	-11586
▁장범준	-11587
▁화이팅	-11588
분장	-11589
승아	-11590
아현	-11591
""-	-11592
▁진수	-11593
정인욱	-11594
▁감독과	-11595
▁고깃집	-11596
으라차차	-11597
▁감사하다	-11598
▁룩	-11599
멱살	-11600
목구	-11601
사항	-11602
치타	-11603
▁겨울	-11604
▁로열	-11605
▁잡지	-11606
▁추첨	-11607
▁키가	-11608
▁투혼	-11609
▁김보성	-11610
▁자상한	-11611
▁찾아뵐	-11612
▁허안나	-11613
▁최고시청률	-11614
스윗	-11615
어려	-11616
▁눈앞	-11617
▁염따	-11618
▁유치	-11619
▁이쁜	-11620
목구비	-11621
문불출	-11622
스킨십	-11623
오윤아	-11624
▁앞에선	-11625
박보검과	-11626
▁항암치료	-11627
·♥	-11628
속상	-11629
칩거	-11630
▁순례	-11631
굿모닝	-11632
사문서	-11633
양미라	-11634
▁아비치	-11635
변함없는	-11636
아티스트	-11637
▁"""7	-11638
불행	-11639
▁버스	-11640
▁허리	-11641
손연재	-11642
양육권	-11643
▁김인석	-11644
▁대기업	-11645
▁보고파	-11646
▁이수경	-11647
▁차였다	-11648
▁감량으로	-11649
변의	-11650
아픔	-11651
트랩	-11652
유키스	-11653
이제는	-11654
▁김정민	-11655
▁초토화	-11656
뻔한	-11657
샤워	-11658
엉뚱	-11659
이죠	-11660
▁국수	-11661
▁출동	-11662
김명민	-11663
모두의	-11664
백반집	-11665
쎈리뷰	-11666
▁임산부	-11667
▁하선호	-11668
▁마주쳤다	-11669
▁백종원도	-11670
▁행복했다	-11671
▁풋	-11672
가격	-11673
다름	-11674
블로	-11675
출신	-11676
▁만화	-11677
▁쓰고	-11678
▁구할까	-11679
▁손지창	-11680
성주	-11681
충분	-11682
곽동연	-11683
▁되기까지	-11684
▁미성년자	-11685
▁바라보며	-11686
나희	-11687
대환	-11688
동방	-11689
영은	-11690
취중	-11691
▁건넨	-11692
▁덕분	-11693
▁안된	-11694
▁핑크	-11695
남편은	-11696
박미선	-11697
▁이상엽	-11698
이스토리	-11699
▁행복하다	-11700
조성	-11701
진에	-11702
▁펼쳐	-11703
산모와	-11704
▁빛냈다	-11705
▁코리아	-11706
토이스토리	-11707
날레	-11708
낸다	-11709
대마	-11710
딸은	-11711
스위	-11712
양임	-11713
혼란	-11714
▁모창	-11715
▁박지	-11716
▁벗고	-11717
▁한글	-11718
▁건들지	-11719
▁귀엽다	-11720
▁이토록	-11721
▁찍으며	-11722
▁피날레	-11723
▁배구선수	-11724
▁시아버지	-11725
▁염정아에	-11726
▁제주도서	-11727
▁껴	-11728
▁닫	-11729
성호	-11730
▁나래	-11731
▁속초	-11732
▁하트	-11733
내운명	-11734
이동국	-11735
▁판타지	-11736
▁형제의	-11737
▁안타까움	-11738
너는내운명	-11739
망명	-11740
캐리	-11741
▁즐거	-11742
김새롬	-11743
▁될게요	-11744
▁윤정희	-11745
▁한정수	-11746
뚝뚝	-11747
르소	-11748
문석	-11749
중에	-11750
쯔치	-11751
친자	-11752
▁고지	-11753
▁농담	-11754
▁사주	-11755
▁수도	-11756
▁없나	-11757
모스트	-11758
제작사	-11759
해주신	-11760
▁연결고	-11761
▁최무성	-11762
▁판청청	-11763
스브스타	-11764
무살	-11765
퇴원	-11766
학원	-11767
▁담호	-11768
▁엄수	-11769
▁이럴	-11770
▁인성	-11771
▁폐렴	-11772
▁연애의	-11773
▁보여드릴	-11774
▁부끄러워	-11775
▁산후조리	-11776
▁인형같은	-11777
감은	-11778
▁어플	-11779
▁욕망	-11780
▁체결	-11781
스윙스	-11782
▁남편에	-11783
▁이상아	-11784
▁임원희	-11785
▁최종회	-11786
▁후드티	-11787
▁처음이지	-11788
엔터테인먼트와	-11789
~"	-11790
▁땅	-11791
건우	-11792
언어	-11793
잡이	-11794
저택	-11795
~""	-11796
▁배워	-11797
▁장수	-11798
▁대저택	-11799
▁,	-11800
민낯	-11801
부상	-11802
훨씬	-11803
▁슈트	-11804
이희준	-11805
찌개집	-11806
▁동반자	-11807
▁맞추기	-11808
▁무너뜨	-11809
▁여신의	-11810
▁쫓	-11811
안경	-11812
▁사무	-11813
▁성우	-11814
▁영재	-11815
▁살인범	-11816
▁유해진	-11817
▁화사한	-11818
▁세상에서	-11819
덕스	-11820
범벅	-11821
우기	-11822
조건	-11823
허니	-11824
▁공격	-11825
▁일과	-11826
▁힐튼	-11827
▁사랑과	-11828
▁없었으면	-11829
본임	-11830
선배	-11831
▁되지	-11832
넘사벽	-11833
뿐인데	-11834
인가요	-11835
?”...‘	-11836
계정	-11837
조림	-11838
▁관종	-11839
▁집밥	-11840
정지훈	-11841
▁김광규	-11842
▁김신영	-11843
폭풍성장	-11844
▁""19	-11845
마지막까지	-11846
♥""..'	-11847
마침	-11848
맞은	-11849
팔짱	-11850
해로	-11851
▁한적	-11852
..11	-11853
▁백일섭	-11854
▁외로워	-11855
▁혐의점	-11856
▁개그우먼	-11857
▁웨	-11858
브로	-11859
알토	-11860
원빈	-11861
지리	-11862
▁항상	-11863
손잡이	-11864
알토란	-11865
▁김지호	-11866
▁못하고	-11867
▁이유가	-11868
▁잘못한	-11869
▁가능했던	-11870
▁가난	-11871
▁크게	-11872
곽지영	-11873
기애애	-11874
김지혜	-11875
▁김혜연	-11876
▁도대체	-11877
▁비현실	-11878
▁왕석현	-11879
▁장희웅	-11880
렀다	-11881
맘의	-11882
밥값	-11883
졌던	-11884
지다	-11885
▁납치	-11886
▁만발	-11887
▁바쁜	-11888
▁이긴	-11889
▁주차	-11890
▁뿐인데	-11891
▁하늘로	-11892
애도물결	-11893
▁닥	-11894
▁했을	-11895
▁김우리	-11896
▁황동주	-11897
▁두려웠다	-11898
권태	-11899
났던	-11900
느님	-11901
웠어	-11902
▁충분	-11903
오히려	-11904
축의금	-11905
▁걸었다	-11906
▁이현주	-11907
▁다녀올게요	-11908
나지	-11909
인상	-11910
학년	-11911
▁개시	-11912
▁김치	-11913
박솔미	-11914
식으로	-11915
▁정도면	-11916
▁조력자	-11917
▁BIFF	-11918
가드	-11919
창영	-11920
▁주안	-11921
부잣집	-11922
▁배윤정	-11923
▁새신랑	-11924
비밀연애	-11925
▁극복하고	-11926
')	-11927
혹시	-11928
▁애인	-11929
▁전락	-11930
남동생	-11931
우다사	-11932
▁이혜정	-11933
▁좋아하는	-11934
방암	-11935
약물	-11936
철파	-11937
▁김밥	-11938
▁노동	-11939
▁사임	-11940
▁어릴	-11941
▁흉터	-11942
철파엠	-11943
▁정재용	-11944
▁자연임신	-11945
▁쪼	-11946
이네	-11947
첫째	-11948
▁대구	-11949
▁얼마	-11950
드려요	-11951
▁꿈꾸는	-11952
▁있으니	-11953
▁필라테스로	-11954
같아	-11955
공원	-11956
주로	-11957
▁몸에	-11958
▁안겨	-11959
▁한상	-11960
▁황실	-11961
구본승	-11962
더가든	-11963
오상진	-11964
▁어떨까	-11965
▁화끈한	-11966
▁남편에게	-11967
▁쐈다	-11968
이태환	-11969
▁사랑할	-11970
▁생각해	-11971
▁있나요	-11972
▁잘랐다	-11973
▁토니안	-11974
▁뭐하세요	-11975
▁아비가일	-11976
▁남자친구와	-11977
▁’	-11978
겨워	-11979
차로	-11980
▁구매	-11981
▁웃는	-11982
▁캠핑	-11983
부친상	-11984
사람들	-11985
위자료	-11986
천생연분	-11987
류진	-11988
쓰고	-11989
한결	-11990
▁본식	-11991
데프콘	-11992
▁태어난	-11993
▁황당한	-11994
▁急	-11995
워서	-11996
지승	-11997
췄다	-11998
▁대장	-11999
▁흔한	-12000
등학교	-12001
아쉬움	-12002
이니까	-12003
▁김성령	-12004
▁벚	-12005
서는	-12006
해치	-12007
▁마녀	-12008
보다는	-12009
오스카	-12010
이진욱	-12011
▁같았던	-12012
▁김민우	-12013
▁실제로	-12014
▁천우희	-12015
소금	-12016
울림	-12017
▁베르	-12018
▁여러	-12019
▁김부용	-12020
▁꽃다발	-12021
▁돌직구	-12022
▁억지로	-12023
▁한효주	-12024
▁장미희에	-12025
♥(	-12026
청산	-12027
▁나만	-12028
▁뷰티	-12029
▁외국	-12030
▁하네	-12031
▁"'5	-12032
▁공로상	-12033
▁사기꾼	-12034
▁아니냐	-12035
▁가정폭력	-12036
랑캐	-12037
태오	-12038
▁살지	-12039
▁편히	-12040
오작교	-12041
이주승	-12042
▁열등감	-12043
▁→	-12044
▁데려	-12045
▁요가	-12046
문채원	-12047
유민상	-12048
▁씹	-12049
소주	-12050
초보	-12051
파크	-12052
▁말자	-12053
▁부르	-12054
살인마	-12055
▁기사에	-12056
▁김제동	-12057
▁생각도	-12058
▁정일우	-12059
내려	-12060
빼고	-12061
주시	-12062
태지	-12063
▁꾸미	-12064
▁망가	-12065
▁사극	-12066
▁취급	-12067
▁캐리	-12068
조우진	-12069
~"""	-12070
▁억울한	-12071
▁이동준	-12072
▁있어야	-12073
허스토리	-12074
▁변함없는	-12075
가게	-12076
가라	-12077
▁사투	-12078
▁쌀롱	-12079
▁예서	-12080
▁이루	-12081
한아름	-12082
▁넘으면	-12083
▁이열음	-12084
거든	-12085
되고	-12086
무현	-12087
베컴	-12088
셔요	-12089
온다	-12090
인도	-12091
입은	-12092
치게	-12093
케팅	-12094
틸다	-12095
???	-12096
▁권리	-12097
▁힙합	-12098
그렇게	-12099
빅픽처	-12100
신성진	-12101
▁뵙	-12102
▁캡	-12103
꺼야	-12104
안해	-12105
에나	-12106
일지	-12107
▁경우	-12108
▁기도	-12109
▁대역	-12110
▁앉아	-12111
▁취향	-12112
하고도	-12113
▁승리가	-12114
▁아름답	-12115
▁안한다	-12116
▁윤지성	-12117
▁조우진	-12118
▁키우는	-12119
▁하재숙	-12120
▁시선강탈	-12121
▁뉘	-12122
▁읍	-12123
업자	-12124
젤라	-12125
죽을	-12126
진한	-12127
혜련	-12128
▁母子	-12129
▁걸릴	-12130
▁것은	-12131
▁낙인	-12132
▁물들	-12133
▁범인	-12134
▁별로	-12135
▁전자	-12136
▁지방	-12137
▁화가	-12138
주겠다	-12139
하다고	-12140
▁구구단	-12141
▁들어와	-12142
▁불가능	-12143
▁상상도	-12144
▁오빠가	-12145
▁진정한	-12146
▁+	-12147
닌다	-12148
님께	-12149
당시	-12150
래머	-12151
발찌	-12152
밤에	-12153
죽고	-12154
축구	-12155
▁걸렸	-12156
▁구역	-12157
▁김씨	-12158
▁날이	-12159
▁뇌물	-12160
▁달리	-12161
▁둘은	-12162
▁망해	-12163
▁미숙	-12164
▁반짝	-12165
▁서열	-12166
▁없인	-12167
▁연장	-12168
▁임성	-12169
▁주름	-12170
▁충실	-12171
▁확률	-12172
게스트	-12173
만하게	-12174
볼수록	-12175
했다면	-12176
▁금메달	-12177
▁닮았네	-12178
▁바라는	-12179
▁사건의	-12180
▁이하이	-12181
▁자리에	-12182
▁주말극	-12183
▁합의금	-12184
▁여주인공	-12185
▁월드스타	-12186
당해	-12187
마른	-12188
명곡	-12189
선을	-12190
성준	-12191
아버	-12192
양한	-12193
욕심	-12194
처리	-12195
치마	-12196
터폴	-12197
▁1%	-12198
▁궁합	-12199
▁김상	-12200
▁돌담	-12201
▁멀리	-12202
▁바르	-12203
▁사법	-12204
▁쌍방	-12205
▁안갚	-12206
▁양해	-12207
▁인종	-12208
▁잡을	-12209
▁잡음	-12210
▁찬미	-12211
▁추적	-12212
▁코믹	-12213
▁평균	-12214
더럽게	-12215
사귀는	-12216
세상에	-12217
수치심	-12218
연습생	-12219
였을까	-12220
▁강혁민	-12221
▁공통점	-12222
▁국정원	-12223
▁글래머	-12224
▁나올까	-12225
▁다르다	-12226
▁되겠다	-12227
▁리액션	-12228
▁말아요	-12229
▁말하고	-12230
▁봤더니	-12231
▁빅픽처	-12232
▁상황에	-12233
▁아이와	-12234
▁이채연	-12235
▁자진하차	-12236
▁페미니스트	-12237
1.	-12238
▁W	-12239
▁흡	-12240
개구	-12241
겨우	-12242
경험	-12243
기피	-12244
김씨	-12245
랭한	-12246
레벨	-12247
리상	-12248
면증	-12249
밤빵	-12250
부실	-12251
불참	-12252
비용	-12253
상원	-12254
식구	-12255
신상	-12256
영욱	-12257
의심	-12258
이마	-12259
익명	-12260
조이	-12261
최율	-12262
크루	-12263
파탄	-12264
포트	-12265
표로	-12266
행위	-12267
▁MB	-12268
▁구원	-12269
▁국방	-12270
▁냈다	-12271
▁늦게	-12272
▁대륙	-12273
▁대책	-12274
▁독특	-12275
▁말을	-12276
▁면제	-12277
▁몽골	-12278
▁뭐해	-12279
▁분께	-12280
▁불씨	-12281
▁사퇴	-12282
▁새드	-12283
▁스웩	-12284
▁스피	-12285
▁시사	-12286
▁씹어	-12287
▁정통	-12288
▁제모	-12289
▁하의	-12290
▁현상	-12291
경찰이	-12292
군복무	-12293
김은숙	-12294
냈으면	-12295
문제로	-12296
보이콧	-12297
분위기	-12298
사쿠라	-12299
삼촌이	-12300
시간이	-12301
신동미	-12302
억울한	-12303
지겠다	-12304
치페이	-12305
함부로	-12306
현빈과	-12307
▁경찰에	-12308
▁고구마	-12309
▁김재환	-12310
▁대성공	-12311
▁린사모	-12312
▁마음은	-12313
▁모였다	-12314
▁무리수	-12315
▁미모로	-12316
▁믿는다	-12317
▁박성웅	-12318
▁박일서	-12319
▁받으며	-12320
▁보려고	-12321
▁생중계	-12322
▁엄태웅	-12323
▁오승윤	-12324
▁운전자	-12325
▁원한다	-12326
▁이태곤	-12327
▁있도록	-12328
▁제작사	-12329
▁콘텐츠	-12330
▁합류로	-12331
프로듀서	-12332
▁2016	-12333
▁거짓말에	-12334
▁골프선수	-12335
▁논란으로	-12336
▁뉴질랜드	-12337
▁말아야지	-12338
▁반성한다	-12339
▁슈퍼스타	-12340
▁스캔들에	-12341
▁아버지와	-12342
▁아시안컵	-12343
▁아침부터	-12344
▁응원물결	-12345
▁인종차별	-12346
▁장미인애	-12347
▁집중조명	-12348
▁최강창민	-12349
데이트폭력	-12350
▁"""11	-12351
▁하이라이트	-12352
29	-12353
:1	-12354
AA	-12355
RM	-12356
SO	-12357
TX	-12358
]“	-12359
·5	-12360
▁Q	-12361
▁↑	-12362
▁靑	-12363
▁덴	-12364
▁뗄	-12365
▁짙	-12366
▁켜	-12367
가동	-12368
공백	-12369
과속	-12370
관람	-12371
괘씸	-12372
구매	-12373
굴욕	-12374
금품	-12375
기관	-12376
기염	-12377
김루	-12378
깎이	-12379
닫는	-12380
담동	-12381
대료	-12382
대형	-12383
도티	-12384
독제	-12385
되찾	-12386
뒹굴	-12387
딩스	-12388
떼창	-12389
뚜두	-12390
뜨청	-12391
로즈	-12392
류담	-12393
말릭	-12394
메피	-12395
모욕	-12396
몸살	-12397
무고	-12398
무후	-12399
미약	-12400
믿보	-12401
밀착	-12402
법의	-12403
벼랑	-12404
변동	-12405
부케	-12406
불금	-12407
상순	-12408
생애	-12409
성실	-12410
슬옹	-12411
시우	-12412
신수	-12413
실내	-12414
쓸쓸	-12415
악화	-12416
았죠	-12417
야망	-12418
어플	-12419
얼리	-12420
엠카	-12421
여곡	-12422
연미	-12423
예리	-12424
용국	-12425
우디	-12426
원진	-12427
이철	-12428
이커	-12429
일치	-12430
입국	-12431
잠정	-12432
장수	-12433
재단	-12434
재발	-12435
전면	-12436
전속	-12437
절도	-12438
제모	-12439
조권	-12440
종결	-12441
종도	-12442
중앙	-12443
중화	-12444
중훈	-12445
지각	-12446
진출	-12447
청구	-12448
청부	-12449
초롱	-12450
추방	-12451
출두	-12452
친애	-12453
케한	-12454
타민	-12455
태교	-12456
태민	-12457
팬서	-12458
프리	-12459
행방	-12460
혐한	-12461
협상	-12462
혹평	-12463
화약	-12464
흑백	-12465
흥행	-12466
00%	-12467
127	-12468
EBS	-12469
PGA	-12470
→21	-12471
▁"4	-12472
▁♥"	-12473
▁값진	-12474
▁거지	-12475
▁결성	-12476
▁고교	-12477
▁구호	-12478
▁눈매	-12479
▁닐로	-12480
▁대치	-12481
▁도피	-12482
▁뜨거	-12483
▁문양	-12484
▁물색	-12485
▁발송	-12486
▁뱀뱀	-12487
▁변심	-12488
▁병행	-12489
▁복구	-12490
▁볼링	-12491
▁부대	-12492
▁불찰	-12493
▁심리	-12494
▁심의	-12495
▁열매	-12496
▁열혈	-12497
▁영탁	-12498
▁완납	-12499
▁외전	-12500
▁외침	-12501
▁용납	-12502
▁용접	-12503
▁유령	-12504
▁유서	-12505
▁유주	-12506
▁윰댕	-12507
▁읍소	-12508
▁응수	-12509
▁이른	-12510
▁이송	-12511
▁일행	-12512
▁임박	-12513
▁자초	-12514
▁잠든	-12515
▁장광	-12516
▁재킷	-12517
▁주최	-12518
▁즉각	-12519
▁지는	-12520
▁참을	-12521
▁참회	-12522
▁축사	-12523
▁탑승	-12524
▁파기	-12525
▁함구	-12526
▁해제	-12527
▁활보	-12528
▁회당	-12529
▁회유	-12530
가시나	-12531
갓세븐	-12532
건조기	-12533
곤지암	-12534
골프로	-12535
공형진	-12536
기부도	-12537
김루트	-12538
김준현	-12539
김지훈	-12540
김태욱	-12541
김현중	-12542
김혜자	-12543
도의적	-12544
로즈업	-12545
롱다리	-12546
리액션	-12547
몰카범	-12548
박동근	-12549
박효신	-12550
분노의	-12551
불명예	-12552
비까지	-12553
비스트	-12554
빌리지	-12555
상식적	-12556
설까지	-12557
설레는	-12558
성격차	-12559
세븐틴	-12560
손승원	-12561
송승환	-12562
숲속집	-12563
승리의	-12564
시비비	-12565
시우민	-12566
시한부	-12567
신미약	-12568
신현희	-12569
씨제스	-12570
악인전	-12571
억울함	-12572
엄친아	-12573
에서는	-12574
엑시트	-12575
여주오	-12576
연이은	-12577
완전체	-12578
외질혜	-12579
우창범	-12580
워크맨	-12581
윤보미	-12582
윤총경	-12583
이니셜	-12584
이불밖	-12585
이어터	-12586
이재진	-12587
일뜨청	-12588
자존감	-12589
전성기	-12590
전시회	-12591
정마담	-12592
정명호	-12593
정자왕	-12594
정재호	-12595
제보자	-12596
조민아	-12597
조한선	-12598
진세연	-12599
진아웃	-12600
차가운	-12601
차피해	-12602
최악의	-12603
카지노	-12604
트럼프	-12605
한국에	-12606
한남동	-12607
한석규	-12608
한지선	-12609
합의금	-12610
환자실	-12611
황광희	-12612
..14	-12613
..16	-12614
..”"	-12615
.5%"	-12616
48',	-12617
SOLO	-12618
]""5	-12619
▁'14	-12620
▁'17	-12621
▁'32	-12622
▁91.	-12623
▁XXX	-12624
▁“10	-12625
▁거식증	-12626
▁걸어요	-12627
▁결별한	-12628
▁경솔함	-12629
▁고소인	-12630
▁궁지에	-12631
▁김기수	-12632
▁김재우	-12633
▁김준희	-12634
▁김하온	-12635
▁깨졌다	-12636
▁남궁연	-12637
▁남지현	-12638
▁넘을까	-12639
▁달라고	-12640
▁답하다	-12641
▁독주회	-12642
▁돌려줘	-12643
▁동문과	-12644
▁동석자	-12645
▁되고파	-12646
▁둘째딸	-12647
▁뒷담화	-12648
▁드림즈	-12649
▁들었다	-12650
▁때렸다	-12651
▁떠나나	-12652
▁리스트	-12653
▁마미손	-12654
▁마침내	-12655
▁멀어진	-12656
▁모두의	-12657
▁몫까지	-12658
▁무대가	-12659
▁무책임	-12660
▁무표정	-12661
▁문어집	-12662
▁문정희	-12663
▁뭉클한	-12664
▁뭐길래	-12665
▁믿기는	-12666
▁바르뎀	-12667
▁방송계	-12668
▁번역가	-12669
▁베를린	-12670
▁변신에	-12671
▁봐주기	-12672
▁부인과	-12673
▁불거져	-12674
▁불쾌감	-12675
▁비난에	-12676
▁비욘세	-12677
▁사기극	-12678
▁사실혼	-12679
▁사연은	-12680
▁사우디	-12681
▁상견례	-12682
▁서연미	-12683
▁성명문	-12684
▁소문난	-12685
▁시도한	-12686
▁신중할	-12687
▁언약식	-12688
▁여행기	-12689
▁연하의	-12690
▁옥택연	-12691
▁온라인	-12692
▁옮겼나	-12693
▁요청에	-12694
▁유이에	-12695
▁의심케	-12696
▁이동윤	-12697
▁이문호	-12698
▁이욱과	-12699
▁이유영	-12700
▁이은상	-12701
▁이을까	-12702
▁이준혁	-12703
▁이현승	-12704
▁이현우	-12705
▁잊어라	-12706
▁잊었나	-12707
▁자랐네	-12708
▁작가와	-12709
▁재테크	-12710
▁정동원	-12711
▁제보자	-12712
▁제자들	-12713
▁조로우	-12714
▁조한선	-12715
▁주셔서	-12716
▁준케이	-12717
▁쥬리나	-12718
▁지속적	-12719
▁집돌이	-12720
▁최우수	-12721
▁축제서	-12722
▁출연도	-12723
▁충무로	-12724
▁치닫는	-12725
▁파악중	-12726
▁팬카페	-12727
▁한남동	-12728
▁한재영	-12729
▁휩싸인	-12730
가오쯔치	-12731
가요대상	-12732
갑작스런	-12733
거침없는	-12734
경찰총장	-12735
고속도로	-12736
구혜선이	-12737
김준한에	-12738
남녀공학	-12739
남편까지	-12740
내기골프	-12741
돈가스집	-12742
동성연애	-12743
드리고파	-12744
마이너스	-12745
메피스토	-12746
미투운동	-12747
박유천의	-12748
빌스택스	-12749
소속사도	-12750
소집해제	-12751
솔직해서	-12752
송송커플	-12753
스타일로	-12754
시청자도	-12755
심경고백	-12756
쌍방폭행	-12757
안재현에	-12758
알쓸신곡	-12759
은방울꽃	-12760
이휘재가	-12761
인피니트	-12762
최명길과	-12763
추가입장	-12764
친시청률	-12765
친애하는	-12766
팝업무비	-12767
팬들에게	-12768
피해여성	-12769
협박의혹	-12770
...30	-12771
1987'	-12772
?..""	-12773
’...“	-12774
▁""24	-12775
▁공개지지	-12776
▁구도쉘리	-12777
▁구하려다	-12778
▁김옥빈에	-12779
▁김창완에	-12780
▁꼬치집에	-12781
▁끼쳐드려	-12782
▁녹여주오	-12783
▁대기실서	-12784
▁독자행보	-12785
▁떠나기로	-12786
▁멤버였다	-12787
▁박민정에	-12788
▁분노폭발	-12789
▁살아달라	-12790
▁살아있어	-12791
▁삼각관계	-12792
▁삼진아웃	-12793
▁상처받은	-12794
▁스티븐연	-12795
▁시작됐다	-12796
▁싶었지만	-12797
▁아트스쿨	-12798
▁양현석이	-12799
▁오마이걸	-12800
▁유가족에	-12801
▁은퇴선언	-12802
▁이별통보	-12803
▁이병헌에	-12804
▁이태호와	-12805
▁이틀만에	-12806
▁있었지만	-12807
▁장나라와	-12808
▁전성시대	-12809
▁조우리에	-12810
▁주목받는	-12811
▁지원사격	-12812
▁천생연분	-12813
▁최고기록	-12814
▁추가입장	-12815
▁충격적인	-12816
▁치팅데이	-12817
▁키이스트	-12818
▁타이틀곡	-12819
▁투표조작	-12820
▁특혜의혹	-12821
▁패션으로	-12822
▁팬미팅서	-12823
▁프리랜서	-12824
▁하의실종	-12825
▁해쉬스완	-12826
▁현역입대	-12827
▁활동재개	-12828
▁황하나의	-12829
▁흔들렸다	-12830
불후의명곡	-12831
아이슬란드	-12832
영스트리트	-12833
집단성폭행	-12834
""...1	-12835
▁거식증까지	-12836
▁미니건조기	-12837
▁반성하겠다	-12838
▁베이비시터	-12839
▁사랑한다면	-12840
▁유령이었다	-12841
▁의미심장한	-12842
▁집단성폭행	-12843
▁출연하고파	-12844
리벤지포르노	-12845
사회복무요원	-12846
전지적참견시점	-12847
.,	-12848
▁핥	-12849
놀이	-12850
막장	-12851
문남	-12852
세포	-12853
시와	-12854
씨와	-12855
은파	-12856
응급	-12857
이창	-12858
잠언	-12859
조준	-12860
주례	-12861
한복	-12862
혈관	-12863
화목	-12864
히기	-12865
the	-12866
▁FT	-12867
▁경하	-12868
▁동승	-12869
▁물어	-12870
▁상봉	-12871
▁속죄	-12872
▁송금	-12873
▁수갑	-12874
▁안도	-12875
▁안티	-12876
▁임호	-12877
▁재편	-12878
▁한해	-12879
▁합동	-12880
▁히프	-12881
급비밀	-12882
모델은	-12883
변명의	-12884
아무도	-12885
아이린	-12886
유대성	-12887
이보람	-12888
전남친	-12889
캐릭터	-12890
한선화	-12891
▁다닌다	-12892
▁레깅스	-12893
▁박정아	-12894
▁발표식	-12895
▁사장의	-12896
▁신아영	-12897
▁악의적	-12898
▁올렸다	-12899
▁이재진	-12900
▁입증한	-12901
▁재소환	-12902
▁회장님	-12903
마약투약	-12904
미스터리	-12905
슬기롭게	-12906
억울하다	-12907
었습니다	-12908
일파만파	-12909
최종훈도	-12910
▁난데없는	-12911
▁모모랜드	-12912
▁비난받는	-12913
▁남자친구는	-12914
▁신고하겠다	-12915
⋅'	-12916
▁&	-12917
궁금	-12918
기각	-12919
받지	-12920
여왕	-12921
우연	-12922
우울	-12923
전환	-12924
존재	-12925
회현	-12926
▁구사	-12927
▁보살	-12928
▁주식	-12929
▁호란	-12930
▁the	-12931
▁동승자	-12932
▁시국에	-12933
▁악플로	-12934
▁알바생	-12935
▁여회현	-12936
▁이사배	-12937
방송활동	-12938
이병헌과	-12939
정준영과	-12940
필연커플	-12941
혐의인정	-12942
▁금의환향	-12943
▁대도서관	-12944
▁여신미모	-12945
▁열애설도	-12946
▁은퇴하나	-12947
▁인피니티	-12948
gu	-12949
▁씌	-12950
▁폄	-12951
구석	-12952
동네	-12953
오리	-12954
유닛	-12955
인드	-12956
탈의	-12957
한남	-12958
est	-12959
▁'8	-12960
▁gu	-12961
▁경연	-12962
▁골목	-12963
▁모함	-12964
▁비리	-12965
▁서른	-12966
▁조우	-12967
▁혼전	-12968
게시물	-12969
부도의	-12970
서경덕	-12971
전태관	-12972
존재감	-12973
탕웨이	-12974
황혜영	-12975
▁끊이지	-12976
▁똑같이	-12977
▁로코퀸	-12978
▁매물로	-12979
▁먹어서	-12980
▁물곰탕	-12981
▁시기에	-12982
▁이영지	-12983
▁임은숙	-12984
▁촬영도	-12985
스펙트럼	-12986
폭행사건	-12987
▁가족에게	-12988
▁부담됐나	-12989
▁콘서트서	-12990
▁폭로글에	-12991
▁guest	-12992
렴치	-12993
아린	-12994
채경	-12995
포털	-12996
헤니	-12997
회동	-12998
▁갑상	-12999
▁경위	-13000
▁단계	-13001
▁민호	-13002
▁바꾸	-13003
▁열린	-13004
▁일왕	-13005
▁차장	-13006
경찰서	-13007
김해숙	-13008
나라의	-13009
장덕철	-13010
▁같은날	-13011
▁고맙다	-13012
▁김우영	-13013
▁대학로	-13014
▁무릎꿇	-13015
▁백세리	-13016
▁본격화	-13017
▁안재환	-13018
▁알아봐	-13019
▁윤서인	-13020
▁이소연	-13021
▁임예진	-13022
▁지내고	-13023
▁지하철	-13024
▁화장품	-13025
시선집중	-13026
시언스쿨	-13027
▁구혜선의	-13028
▁망가지길	-13029
▁부모님도	-13030
▁아니라는	-13031
▁인생역전	-13032
▁크리스탈	-13033
강다니엘과	-13034
국가부도의	-13035
법적대응할	-13036
▁지켜봐주길	-13037
FU	-13038
LL	-13039
ON	-13040
↑+	-13041
그립	-13042
기화	-13043
내조	-13044
라미	-13045
발인	-13046
예담	-13047
일단	-13048
일이	-13049
킬빌	-13050
▁담요	-13051
▁리딩	-13052
▁신호	-13053
▁일갈	-13054
▁찬사	-13055
▁찬희	-13056
▁치빈	-13057
▁치유	-13058
▁탈북	-13059
또같이	-13060
명백한	-13061
양민석	-13062
윤서빈	-13063
조승우	-13064
차라리	-13065
청주대	-13066
친동생	-13067
테이블	-13068
파렴치	-13069
FULL	-13070
▁가족에	-13071
▁무엇을	-13072
▁방송에	-13073
▁양육권	-13074
▁이성욱	-13075
▁장문복	-13076
▁장어집	-13077
▁잼잼이	-13078
▁차까지	-13079
그럼에도	-13080
단발머리	-13081
진실게임	-13082
▁3500	-13083
▁간이검사	-13084
▁다시보기	-13085
브랜뉴뮤직	-13086
일억개의별	-13087
녀린	-13088
도우	-13089
려다	-13090
병상	-13091
유령	-13092
집밥	-13093
풍기	-13094
▁‘3	-13095
▁그날	-13096
▁급격	-13097
▁뮤즈	-13098
▁방침	-13099
▁밴드	-13100
▁식단	-13101
▁쏘아	-13102
▁없음	-13103
▁욕구	-13104
▁중에	-13105
명탐정	-13106
미디어	-13107
장라면	-13108
짝사랑	-13109
해지는	-13110
▁'12	-13111
▁내보내	-13112
▁뜨겁다	-13113
▁문근영	-13114
▁박선호	-13115
▁불거진	-13116
▁에디킴	-13117
▁올스톱	-13118
▁욕먹는	-13119
▁있는데	-13120
▁정호영	-13121
▁죄송한	-13122
▁초기화	-13123
▁치명상	-13124
▁휘몰아	-13125
시선강간	-13126
았습니다	-13127
...'1	-13128
▁시기상조	-13129
▁쏘아올린	-13130
▁전면취소	-13131
의식불명설	-13132
조선명탐정	-13133
""..'3	-13134
▁뒤집어놓은	-13135
▁박스오피스	-13136
▁악성림프종	-13137
▁남북정상회담	-13138
밴쯔	-13139
송치	-13140
여명	-13141
전설	-13142
치킨	-13143
!”"	-13144
▁개설	-13145
▁궁전	-13146
▁맞붙	-13147
▁썸남	-13148
▁초심	-13149
김학래	-13150
놀라운	-13151
리우스	-13152
바람녀	-13153
스폰서	-13154
심각성	-13155
이어라	-13156
조현재	-13157
케이윌	-13158
LOVE	-13159
▁아팠다	-13160
미야와키	-13161
부러우면	-13162
상습도박	-13163
출국금지	-13164
]""11	-13165
▁경찰출석	-13166
▁맞붙었다	-13167
bo	-13168
걸음	-13169
대본	-13170
리안	-13171
민서	-13172
연속	-13173
전신	-13174
전후	-13175
터치	-13176
(23	-13177
84·	-13178
▁귀화	-13179
▁꼈다	-13180
▁면접	-13181
▁실추	-13182
▁의료	-13183
▁이두	-13184
▁팬서	-13185
▁희율	-13186
김사부	-13187
넘치는	-13188
브레이	-13189
송민호	-13190
스피드	-13191
얼간이	-13192
여친에	-13193
오민석	-13194
오빠가	-13195
일본어	-13196
죄책감	-13197
최민용	-13198
하현우	-13199
▁기억해	-13200
▁깨달음	-13201
▁불합격	-13202
▁숨겼다	-13203
▁전해진	-13204
▁줄줄이	-13205
포상휴가	-13206
▁계속된다	-13207
▁바꿔치기	-13208
▁일상으로	-13209
▁케이케이	-13210
▁페스티벌	-13211
금액	-13212
나기	-13213
리핀	-13214
분할	-13215
유죄	-13216
은세	-13217
지간	-13218
현역	-13219
box	-13220
▁극적	-13221
▁놀아	-13222
▁독살	-13223
▁민혁	-13224
▁불복	-13225
▁송해	-13226
▁울다	-13227
▁천국	-13228
강혁민	-13229
스티븐	-13230
오혜원	-13231
쭉해진	-13232
할머니	-13233
▁속상해	-13234
▁싸이와	-13235
▁이보희	-13236
▁이신영	-13237
▁전태수	-13238
▁징역형	-13239
▁필리핀	-13240
신인배우	-13241
웨딩화보	-13242
▁뒷바라지	-13243
▁왕진진과	-13244
분쟁	-13245
졸업	-13246
주취	-13247
-10	-13248
▁FA	-13249
▁논쟁	-13250
▁더한	-13251
▁마크	-13252
▁물망	-13253
▁반장	-13254
▁밥상	-13255
▁소길	-13256
▁일할	-13257
▁허세	-13258
▁회신	-13259
김다미	-13260
김의성	-13261
오또맘	-13262
인기피	-13263
▁고스트	-13264
▁둘만의	-13265
▁박신양	-13266
▁시험지	-13267
▁안하는	-13268
▁저격글	-13269
▁첫눈에	-13270
▁토요일	-13271
▁한상규	-13272
염주의보	-13273
재산분할	-13274
프리스틴	-13275
▁사진까지	-13276
▁여성들과	-13277
▁필라테스	-13278
▁애프터스쿨	-13279
방식	-13280
유석	-13281
쳤어	-13282
블락비	-13283
산체스	-13284
주지훈	-13285
핸섬타	-13286
▁'23	-13287
▁감독상	-13288
▁김유석	-13289
▁대기록	-13290
▁앙상한	-13291
▁충격적	-13292
▁흘리는	-13293
송중기와	-13294
▁극복할까	-13295
핸섬타이거즈	-13296
김주	-13297
시켜	-13298
와서	-13299
즉각	-13300
처가	-13301
통한	-13302
▁각종	-13303
▁거대	-13304
▁끔찍	-13305
▁만두	-13306
▁면모	-13307
▁반말	-13308
▁유독	-13309
▁칩거	-13310
▁한때	-13311
당신이	-13312
방구석	-13313
어디서	-13314
오승윤	-13315
조연상	-13316
▁손배소	-13317
▁아닌데	-13318
▁지킨다	-13319
▁채수빈	-13320
▁최환희	-13321
이틀만에	-13322
제리케이	-13323
▁장미여관	-13324
▁치과의사	-13325
가연	-13326
벌이	-13327
일은	-13328
충수	-13329
▁CF	-13330
▁강두	-13331
▁끝났	-13332
▁낭송	-13333
▁번진	-13334
▁서먹	-13335
▁인수	-13336
그래미	-13337
유종의	-13338
임신한	-13339
▁VOD	-13340
▁강했다	-13341
▁그만둔	-13342
▁꽃다운	-13343
▁무차별	-13344
▁쉬어요	-13345
▁신메뉴	-13346
▁신현수	-13347
▁있으면	-13348
▁고군분투	-13349
▁피자집에	-13350
모친	-13351
법률	-13352
실감	-13353
잤다	-13354
▁미술	-13355
▁변수	-13356
▁위독	-13357
양육비	-13358
오후의	-13359
이정진	-13360
팬들은	-13361
▁그리며	-13362
▁반하게	-13363
▁이승준	-13364
▁축하에	-13365
누드화보	-13366
▁동안미모	-13367
군살	-13368
슬혜	-13369
▁미드	-13370
▁밤샘	-13371
▁빌어	-13372
▁케어	-13373
김미화	-13374
성민씨	-13375
우슬혜	-13376
현실판	-13377
▁구속에	-13378
▁제안에	-13379
사과까지	-13380
스튜디오	-13381
▁친구들과	-13382
관에	-13383
부키	-13384
석희	-13385
선규	-13386
스컬	-13387
어싱	-13388
오픈	-13389
우가	-13390
최애	-13391
회생	-13392
▁사수	-13393
▁살길	-13394
▁이승	-13395
▁혹은	-13396
겠어요	-13397
무혐의	-13398
부적절	-13399
▁비판에	-13400
▁알고도	-13401
▁이솔이	-13402
▁피어싱	-13403
개그우먼	-13404
▁주가조작	-13405
결말	-13406
원준	-13407
잇디	-13408
▁갚은	-13409
▁결제	-13410
▁그후	-13411
▁문의	-13412
▁묻히	-13413
▁감사한	-13414
▁김경호	-13415
▁이채은	-13416
▁떠나보내	-13417
▁콩	-13418
➝'	-13419
굉장	-13420
두운	-13421
봄날	-13422
수리	-13423
회에	-13424
▁밤에	-13425
▁압박	-13426
▁원년	-13427
▁종사	-13428
▁첫째	-13429
개월여	-13430
바가지	-13431
의문의	-13432
친절한	-13433
▁김경란	-13434
▁뮤지션	-13435
▁배려는	-13436
▁벗어나	-13437
▁팀워크	-13438
▁솔직해서	-13439
▁원년멤버	-13440
▁추락사고	-13441
...""'	-13442
▁살겠습니다	-13443
▁뼈	-13444
▁쳐	-13445
가치	-13446
고시	-13447
껑충	-13448
레드	-13449
만이	-13450
작권	-13451
학당	-13452
▁마른	-13453
▁일화	-13454
▁있지	-13455
가치관	-13456
디즈니	-13457
아빠와	-13458
▁들어가	-13459
▁러시아	-13460
하자마자	-13461
▁웬	-13462
발로	-13463
종교	-13464
통수	-13465
’·‘	-13466
▁미팅	-13467
▁베개	-13468
▁억류	-13469
▁철인	-13470
굉장히	-13471
양희은	-13472
홍진경	-13473
▁"'3	-13474
▁강수지	-13475
▁긴장감	-13476
▁김정화	-13477
▁원하는	-13478
▁최일화	-13479
▁황바울	-13480
NM	-13481
털털	-13482
..7	-13483
~'"	-13484
▁격정	-13485
▁체크	-13486
▁합가	-13487
꿀영상	-13488
논스톱	-13489
최화정	-13490
▁ENM	-13491
▁단란한	-13492
▁올리며	-13493
▁최송현	-13494
▁호랑이	-13495
▁격정멜로	-13496
▁어벤져스	-13497
▁필요하다	-13498
성립	-13499
약혼	-13500
탠리	-13501
테랑	-13502
희가	-13503
▁92	-13504
▁발령	-13505
▁보석	-13506
▁양평	-13507
▁제가	-13508
▁첫회	-13509
패션계	-13510
▁뒤통수	-13511
▁반응에	-13512
▁심형탁	-13513
▁아이스	-13514
▁완전한	-13515
▁전준영	-13516
▁주지훈	-13517
▁뛰어넘은	-13518
▁이벤트에	-13519
국종	-13520
▁36	-13521
▁귀신	-13522
▁밀회	-13523
▁신나	-13524
▁안은	-13525
▁어떡	-13526
▁준호	-13527
▁지오	-13528
▁지친	-13529
엄앵란	-13530
▁양세찬	-13531
▁이지안	-13532
▁한채영	-13533
▁”	-13534
달환	-13535
타고	-13536
▁노비	-13537
▁슬림	-13538
▁입덕	-13539
김동윤	-13540
엄정화	-13541
▁박규리	-13542
▁조달환	-13543
▁차범근	-13544
▁차이로	-13545
별세	-13546
식에	-13547
이호	-13548
찬다	-13549
▁능력	-13550
▁밀러	-13551
▁차질	-13552
비밀의	-13553
중에도	-13554
▁고시원	-13555
▁달달함	-13556
▁시월드	-13557
▁얼굴도	-13558
▁이석훈	-13559
▁일본인	-13560
▁통역사	-13561
▁부부됐다	-13562
동차	-13563
릴라	-13564
산에	-13565
세월	-13566
시울	-13567
토로	-13568
▁경주	-13569
▁내서	-13570
▁보라	-13571
▁푸드	-13572
서로의	-13573
팬들도	-13574
▁비법은	-13575
▁유채영	-13576
▁이던과	-13577
▁정재형	-13578
눈물바다	-13579
비인두암	-13580
▁200%	-13581
▁한달만에	-13582
뭉쳐야찬다	-13583
···"""	-13584
노병	-13585
르샤	-13586
상상	-13587
셀카	-13588
장난	-13589
편성	-13590
홀릭	-13591
▁명절	-13592
▁재기	-13593
▁학업	-13594
하다니	-13595
▁"“‘	-13596
▁나르샤	-13597
▁의뢰인	-13598
▁황치열	-13599
▁신혼생활	-13600
FT	-13601
김형	-13602
르바	-13603
주부	-13604
찰칵	-13605
▁뽐내	-13606
▁앞에	-13607
송선미	-13608
테이너	-13609
▁"'2	-13610
▁고혜란	-13611
▁꿇었다	-13612
▁던졌다	-13613
▁사귀는	-13614
▁서은광	-13615
▁설맞이	-13616
▁시리즈	-13617
▁아르바	-13618
슈퍼모델	-13619
?'...	-13620
▁아르바이트	-13621
▁랩	-13622
려나	-13623
방에	-13624
▁겸업	-13625
▁닭살	-13626
▁마스	-13627
▁모드	-13628
▁소비	-13629
▁수습	-13630
▁유우	-13631
▁지장	-13632
눈물로	-13633
벌금형	-13634
이성재	-13635
재촬영	-13636
▁복귀설	-13637
▁생각이	-13638
▁이것이	-13639
▁임신중	-13640
▁있지만	-13641
▁민낯에도	-13642
▁성인배우	-13643
맞아	-13644
맴찢	-13645
문안	-13646
밥도	-13647
상화	-13648
용진	-13649
제대	-13650
키정	-13651
▁꼴찌	-13652
엇갈린	-13653
에게서	-13654
▁미키정	-13655
▁병문안	-13656
▁애국가	-13657
▁진실은	-13658
▁뺐	-13659
당히	-13660
박해	-13661
옥문	-13662
충일	-13663
희영	-13664
▁겪어	-13665
▁낭독	-13666
▁대동	-13667
▁우린	-13668
▁입시	-13669
▁있냐	-13670
▁잊은	-13671
엄마의	-13672
하네요	-13673
▁갖고파	-13674
▁내놨다	-13675
▁버렸다	-13676
▁사랑도	-13677
▁이하나	-13678
▁추념식	-13679
▁팝핀현준	-13680
행복하세요	-13681
센트	-13682
애리	-13683
▁父子	-13684
▁신생	-13685
▁패배	-13686
김도균	-13687
선다방	-13688
▁김재근	-13689
▁몰입도	-13690
▁문채원	-13691
▁속였다	-13692
▁송이우	-13693
▁입학식	-13694
▁채시라	-13695
그대	-13696
맑음	-13697
야키	-13698
한번	-13699
▁"2	-13700
▁원래	-13701
▁체질	-13702
고원희	-13703
그녀로	-13704
동료로	-13705
백진희	-13706
빅이슈	-13707
코야키	-13708
BIFF	-13709
▁당황시킨	-13710
▁밝혀질까	-13711
▁아빠된다	-13712
▁연예통신	-13713
ᅲᅲ	-13714
다일	-13715
르몬	-13716
밀당	-13717
크로	-13718
▁윤박	-13719
▁처가	-13720
남결영	-13721
봉태규	-13722
▁결과는	-13723
▁김혜수	-13724
▁쌍꺼풀	-13725
▁어워드	-13726
▁이찬혁	-13727
▁염정아의	-13728
귀엽	-13729
사내	-13730
인들	-13731
택근	-13732
84-	-13733
▁볼살	-13734
박원숙	-13735
왕밤빵	-13736
크로율	-13737
▁응원할	-13738
▁임재범	-13739
이탈리아	-13740
▁싱크로율	-13741
▁여지없다	-13742
▁초등학생	-13743
’·	-13744
날이	-13745
바른	-13746
태후	-13747
흑화	-13748
▁과일	-13749
▁낙태	-13750
▁면회	-13751
십시오	-13752
조용히	-13753
▁마치고	-13754
▁매력에	-13755
▁문소리	-13756
▁박은영	-13757
▁방부터	-13758
▁여사친	-13759
▁자녀와	-13760
▁사라졌다	-13761
▁우주소녀	-13762
...""1	-13763
GG	-13764
래서	-13765
세부	-13766
인화	-13767
일일	-13768
화력	-13769
▁생방	-13770
▁호전	-13771
경각심	-13772
고시원	-13773
선우선	-13774
장문복	-13775
풀려나	-13776
▁끊었다	-13777
▁소름끼	-13778
▁예뻤나	-13779
▁이어갈	-13780
▁공식석상서	-13781
감금	-13782
렸네	-13783
아동	-13784
▁전선	-13785
드캐리	-13786
이선희	-13787
▁트로피	-13788
▁매니저에게	-13789
+3	-13790
▁낚	-13791
나간	-13792
담회	-13793
도소	-13794
승전	-13795
▁맞춰	-13796
애프터	-13797
지석진	-13798
▁박지윤	-13799
▁전태관	-13800
커밍아웃	-13801
▁욕설논란	-13802
맑은	-13803
▁데이	-13804
▁만능	-13805
▁전도	-13806
김옥빈	-13807
레이크	-13808
배윤정	-13809
식샤를	-13810
정아라	-13811
▁김주영	-13812
▁초유의	-13813
드리겠다	-13814
조은정과	-13815
스스	-13816
이형	-13817
자고	-13818
▁과다	-13819
▁벌금	-13820
▁인맥	-13821
강원래	-13822
아재쇼	-13823
일상이	-13824
호스트	-13825
▁뇌섹남	-13826
▁오작교	-13827
▁잠재운	-13828
▁재도전	-13829
▁케이크	-13830
▁화장실	-13831
스타와치	-13832
▁디모스트	-13833
▁이목구비	-13834
▁칠	-13835
멘집	-13836
주주	-13837
▁비서	-13838
▁승무	-13839
▁출소	-13840
마침표	-13841
오지은	-13842
▁떠났나	-13843
▁라멘집	-13844
▁이기찬	-13845
▁지난달	-13846
▁승무원과	-13847
▁판타지오	-13848
▁[2020	-13849
▁혁	-13850
다솜	-13851
완선	-13852
유람	-13853
유선	-13854
재회	-13855
▁누굴	-13856
▁밝아	-13857
▁차명	-13858
▁향연	-13859
▁화려	-13860
유다솜	-13861
후드티	-13862
▁VIP	-13863
▁쌍천만	-13864
▁적당히	-13865
★"	-13866
꾸로	-13867
안한	-13868
진지	-13869
(18	-13870
▁뭉친	-13871
▁믿기	-13872
▁수고	-13873
▁집념	-13874
아시아	-13875
어떻게	-13876
한보름	-13877
▁"['	-13878
▁남편이	-13879
▁사부곡	-13880
▁트레이	-13881
▁성형수술	-13882
▁이탈리아	-13883
▁피해자에	-13884
놀토	-13885
달려	-13886
막에	-13887
장이	-13888
.."	-13889
2’,	-13890
▁돼요	-13891
▁야구	-13892
▁임원	-13893
▁접근	-13894
보이는	-13895
품절남	-13896
▁우승희	-13897
▁정웅인	-13898
▁勝	-13899
누명	-13900
다섯	-13901
안방	-13902
었네	-13903
제아	-13904
치병	-13905
▁트렌	-13906
▁거꾸로	-13907
▁꿈같은	-13908
▁세계적	-13909
▁시달려	-13910
▁유하나	-13911
심장마비	-13912
▁롱피자집	-13913
강성	-13914
경영	-13915
믿을	-13916
서린	-13917
▁"(	-13918
▁95	-13919
▁삶의	-13920
▁시그	-13921
맹유나	-13922
불륜설	-13923
아빠가	-13924
이지안	-13925
최우식	-13926
▁이아현	-13927
사기혐의	-13928
빌라	-13929
이러	-13930
점점	-13931
?[★	-13932
▁장만	-13933
▁트라	-13934
김혜선	-13935
받았다	-13936
▁목걸이	-13937
▁친언니	-13938
..""2	-13939
▁태교여행	-13940
▁트라우마	-13941
피아니스트	-13942
검법	-13943
드폰	-13944
세제	-13945
얗고	-13946
예딸	-13947
온한	-13948
한류	-13949
▁간식	-13950
▁물려	-13951
▁수면	-13952
▁육감	-13953
▁전수	-13954
▁풀려	-13955
▁허각	-13956
가족은	-13957
김빈우	-13958
나래바	-13959
모친상	-13960
핸드폰	-13961
▁극대화	-13962
▁다이빙	-13963
검법남녀	-13964
세제예딸	-13965
▁감사해요	-13966
▁결혼하고	-13967
▁독보적인	-13968
▁이겨내고	-13969
▁동막골소녀	-13970
인분	-13971
정욱	-13972
하장	-13973
흘째	-13974
▁눈썹	-13975
으면서	-13976
클래스	-13977
▁낳겠다	-13978
▁수줍은	-13979
말년	-13980
인태	-13981
▁목욕	-13982
▁조권	-13983
▁짠내	-13984
▁중심에	-13985
선후배로	-13986
지금까지	-13987
▁결혼으로	-13988
뱃속	-13989
알바	-13990
줘요	-13991
▁난다	-13992
▁살림	-13993
▁손승연	-13994
▁황현희	-13995
▁휴식기	-13996
]""10	-13997
▁명불허전	-13998
▁잘하세요	-13999
공자	-14000
모전	-14001
버릴	-14002
어느	-14003
잡고	-14004
펀펀	-14005
▁서초	-14006
▁셔츠	-14007
감우성	-14008
부인과	-14009
콘텐츠	-14010
펀펀한	-14011
▁남편도	-14012
▁지난해	-14013
고마워요	-14014
년도	-14015
북이	-14016
▁가시	-14017
▁다들	-14018
▁1·2	-14019
▁바가지	-14020
▁빈지노	-14021
▁쇼핑몰	-14022
▁윤기원	-14023
▁차현우와	-14024
설계	-14025
우현	-14026
탈모	-14027
태경	-14028
▁마시	-14029
▁없고	-14030
몰입도	-14031
수영복	-14032
▁스웨덴	-14033
▁권다미와	-14034
▁아침식사	-14035
.♥	-14036
연봉	-14037
인이	-14038
현동	-14039
휴직	-14040
▁구두	-14041
▁박준	-14042
▁시크	-14043
▁아깝	-14044
▁장례	-14045
그동안	-14046
이라도	-14047
이상아	-14048
차승원	-14049
▁대폭발	-14050
▁역할에	-14051
▁우혜미	-14052
▁최우선	-14053
▁이시언의	-14054
pi	-14055
▁갇	-14056
던데	-14057
마토	-14058
피는	-14059
▁것들	-14060
▁기계	-14061
▁라니	-14062
▁방탄	-14063
▁샤워	-14064
▁자식	-14065
▁풋풋	-14066
pick	-14067
▁이규형	-14068
브레이브	-14069
▁대표이사	-14070
▁지금까지	-14071
▁해주세요	-14072
▁덤	-14073
광대	-14074
모키	-14075
200	-14076
▁걸리	-14077
▁기쁘	-14078
▁소야	-14079
▁왕자	-14080
▁용돈	-14081
▁커서	-14082
구준엽	-14083
아빠는	-14084
예정화	-14085
오종혁	-14086
▁빠진다	-14087
▁않아요	-14088
▁초특급	-14089
▁이영자도	-14090
▁최다니엘	-14091
▁놈	-14092
▁컨	-14093
더콜	-14094
무열	-14095
설명	-14096
승재	-14097
학번	-14098
▁사제	-14099
▁탐정	-14100
거펠트	-14101
내년에	-14102
도경수	-14103
테리어	-14104
▁짜장면	-14105
▁포기한	-14106
...20	-14107
▁가짜뉴스	-14108
▁쉼	-14109
없네	-14110
▁거주	-14111
박유나	-14112
서민정	-14113
▁사람과	-14114
▁않을게	-14115
▁한글날	-14116
꽁냥꽁냥	-14117
▁라거펠트	-14118
▁사랑합니다	-14119
▁시어머니와	-14120
▁얽	-14121
문어	-14122
보러	-14123
소윤	-14124
칠까	-14125
소윤과	-14126
손가락	-14127
▁야구장	-14128
선남선녀	-14129
▁백종원이	-14130
▁천리마마트	-14131
JK	-14132
▁꽂	-14133
망한	-14134
종일	-14135
하윤	-14136
▁먹는	-14137
▁샀다	-14138
▁얼음	-14139
굴곡진	-14140
목격자	-14141
스무살	-14142
신보라	-14143
왕석현	-14144
▁김영광	-14145
▁연결고리	-14146
만발	-14147
음에	-14148
히는	-14149
▁기절	-14150
▁사단	-14151
▁야외	-14152
▁환자	-14153
백허그	-14154
▁박경림	-14155
▁정원중	-14156
▁최명길과	-14157
돼지	-14158
트니	-14159
▁손주	-14160
▁염색	-14161
▁조안	-14162
▁죽여	-14163
▁커져	-14164
이혜정	-14165
▁꽃미모	-14166
▁비호감	-14167
지금처럼	-14168
▁맨	-14169
작년	-14170
판도	-14171
▁리스	-14172
▁부재	-14173
▁일치	-14174
▁합성	-14175
▁확진	-14176
고맙고	-14177
다이빙	-14178
▁god	-14179
▁김원효	-14180
▁김지민	-14181
▁리얼한	-14182
▁아찔한	-14183
왼손잡이	-14184
▁김치찌개집	-14185
눈빛	-14186
알아	-14187
항암	-14188
▁보자	-14189
▁주스	-14190
허정민	-14191
▁"‘1	-14192
▁여배우들	-14193
▁찾아왔다	-14194
▁결혼합니다	-14195
기습	-14196
2]"	-14197
▁공주	-14198
▁협상	-14199
▁화신	-14200
미용실	-14201
▁윤도현	-14202
알고보니	-14203
▁애정표현	-14204
▁제이블랙	-14205
없음	-14206
창의	-14207
▁母女	-14208
▁전세	-14209
▁지식	-14210
박정민	-14211
사이즈	-14212
한다면	-14213
현실은	-14214
▁나래바	-14215
▁올랐다	-14216
▁벌써부터	-14217
▁어린이집	-14218
▁돕	-14219
군대	-14220
봐야	-14221
심서	-14222
작별	-14223
▁조리	-14224
강수정	-14225
▁김병만	-14226
▁동생이	-14227
▁청혼한	-14228
▁최불암	-14229
▁법정구속	-14230
나나	-14231
모자	-14232
위반	-14233
▁처방	-14234
▁취해	-14235
건강히	-14236
정조국	-14237
제작진과	-14238
▁연예인들	-14239
▁힘들었던	-14240
봐도	-14241
시집	-14242
외자	-14243
지니	-14244
황후	-14245
▁윤하	-14246
▁전속	-14247
김한길	-14248
신애라	-14249
이현이	-14250
천우희	-14251
호날두	-14252
▁김혜림	-14253
▁없어도	-14254
▁잘하는	-14255
▁절친의	-14256
프로다운	-14257
▁결별까지	-14258
▁이럴수가	-14259
▁프로골퍼	-14260
▁먼	-14261
비빔	-14262
사슴	-14263
세진	-14264
▁다솜	-14265
▁장관	-14266
선생님	-14267
..15	-14268
▁꽃사슴	-14269
▁어디가	-14270
기분	-14271
꿈의	-14272
제거	-14273
▁났다	-14274
▁앓아	-14275
▁쾌유	-14276
▁권태기	-14277
▁달라져	-14278
▁맺어준	-14279
▁밝힌다	-14280
▁중식당	-14281
▁친구가	-14282
▁눌	-14283
▁뱅	-14284
련한	-14285
▁..	-14286
▁냄새	-14287
▁눌러	-14288
▁아동	-14289
배두나	-14290
이정도	-14291
허안나	-14292
▁평창동	-14293
속도위반	-14294
동혁	-14295
밥상	-14296
수형	-14297
▁생겼	-14298
▁수중	-14299
▁안심	-14300
▁챙기	-14301
▁폐인	-14302
눈부신	-14303
민우혁	-14304
윤태영	-14305
조동혁	-14306
▁미녀의	-14307
▁셋째딸	-14308
▁손은서	-14309
▁자연인	-14310
사업가와	-14311
첫만남에	-14312
▁아름다워	-14313
겠죠	-14314
▁금발	-14315
▁맛집	-14316
▁원준	-14317
문가비	-14318
이선균	-14319
▁동명이	-14320
▁박해수	-14321
▁성공한	-14322
▁본방사수	-14323
거면	-14324
라임	-14325
성한	-14326
예약	-14327
윈튼	-14328
진성	-14329
코믹	-14330
▁실체	-14331
▁어른	-14332
▁있고	-14333
귀여운	-14334
용의자	-14335
원진아	-14336
위안부	-14337
▁스윈튼	-14338
▁여대생	-14339
▁하지만	-14340
▁추사랑과	-14341
내딸	-14342
스의	-14343
오는	-14344
▁겁나	-14345
▁나을	-14346
▁수가	-14347
▁아가	-14348
년차에	-14349
▁변정수	-14350
내뒤	-14351
젊은	-14352
정양	-14353
폭주	-14354
플루	-14355
▁도주	-14356
▁설정	-14357
▁예방	-14358
▁추후	-14359
이사배	-14360
▁나오면	-14361
▁위워크	-14362
▁전수민	-14363
▁최민용	-14364
em	-14365
▁y	-14366
사별	-14367
쉬튼	-14368
▁국제	-14369
▁매드	-14370
▁무어	-14371
▁테니	-14372
입맞춤	-14373
클라운	-14374
페이스	-14375
▁똑같은	-14376
▁한강뷰	-14377
▁피해자들	-14378
▁매드클라운	-14379
그런	-14380
나가	-14381
재준	-14382
▁꽃뱀	-14383
▁네가	-14384
▁딸에	-14385
▁먹어도	-14386
▁보면서	-14387
▁이지훈	-14388
▁있었던	-14389
▁지병으로	-14390
▁칸영화제	-14391
▁프라이머리	-14392
MG	-14393
▁넌	-14394
▁밉	-14395
근희	-14396
날보러	-14397
손현주	-14398
스포츠	-14399
이근희	-14400
정웅인	-14401
▁고수희	-14402
▁말하는	-14403
▁박영선	-14404
▁인형이	-14405
날보러와요	-14406
▁폭풍성장한	-14407
▁덫	-14408
▁딴	-14409
동빈	-14410
먹먹	-14411
인다	-14412
현성	-14413
▁다르	-14414
▁멱살	-14415
▁몰려	-14416
▁어때	-14417
▁크리	-14418
▁터키	-14419
고경표	-14420
대행진	-14421
조영구	-14422
▁손병호	-14423
▁위기의	-14424
▁인생은	-14425
▁저작권	-14426
▁정경호	-14427
▁퍼펙트	-14428
▁놀이공원	-14429
▁초스피드	-14430
간에	-14431
성에	-14432
이본	-14433
주스	-14434
차피	-14435
항준	-14436
▁쓰리	-14437
▁이영	-14438
잖아요	-14439
즈니스	-14440
▁사람을	-14441
▁지망생	-14442
▁몰입	-14443
▁분명	-14444
▁스튜	-14445
▁웃기	-14446
▁정양	-14447
박진우	-14448
오지혜	-14449
▁대부분	-14450
▁발인식	-14451
▁실패로	-14452
▁쓰리샷	-14453
...”"	-14454
아요	-14455
있게	-14456
재민	-14457
톡스	-14458
▁벚꽃	-14459
▁이민	-14460
▁깜찍한	-14461
▁사람도	-14462
▁따로없네	-14463
내동	-14464
들아	-14465
유안	-14466
있나	-14467
▁살면	-14468
▁새집	-14469
▁졸라	-14470
김현진	-14471
달라고	-14472
▁마녀사냥	-14473
승언	-14474
태풍	-14475
한해	-14476
했고	-14477
▁49	-14478
▁밀라	-14479
▁올린	-14480
▁해서	-14481
서태지	-14482
았어요	-14483
에일리	-14484
여자가	-14485
...`	-14486
▁가고파	-14487
▁김성규	-14488
▁당연한	-14489
▁살아라	-14490
▁신은경	-14491
▁생각하는	-14492
▁안타깝다	-14493
도가	-14494
만간	-14495
이구	-14496
키마	-14497
혼혈	-14498
▁까지	-14499
▁신기	-14500
▁예민	-14501
▁정태	-14502
기념일	-14503
이소연	-14504
한은정	-14505
▁김보미	-14506
▁김빈우	-14507
▁이원일	-14508
키마이라	-14509
▁계약만료	-14510
맨한	-14511
우아	-14512
훈과	-14513
▁나서	-14514
대학생	-14515
으세요	-14516
하시길	-14517
▁성범죄	-14518
▁안된다	-14519
▁쪼맨한	-14520
▁홈쇼핑	-14521
하시시박	-14522
▁뚱	-14523
그로	-14524
어지	-14525
하객	-14526
▁골인	-14527
▁웃긴	-14528
▁일어	-14529
▁터트	-14530
허신애	-14531
..'♥	-14532
▁노무현	-14533
▁몰라도	-14534
▁물타기	-14535
▁사진은	-14536
▁아직도	-14537
▁결혼하면	-14538
...""5	-14539
▁맡	-14540
둬라	-14541
입사	-14542
자꾸	-14543
장에	-14544
피부	-14545
했네	-14546
▁“1	-14547
▁안무	-14548
▁예쁠	-14549
▁잇는	-14550
▁진한	-14551
한다는	-14552
▁관심이	-14553
▁모습도	-14554
같이펀딩	-14555
▁웨딩촬영	-14556
’→	-14557
▁:	-14558
김윤	-14559
더미	-14560
일권	-14561
▁갈아	-14562
▁도배	-14563
▁스카	-14564
▁유혜	-14565
▁죽는	-14566
▁호통	-14567
강남과	-14568
그래서	-14569
▁김소영	-14570
▁박지헌	-14571
▁임청하	-14572
머라이어	-14573
▁건강하게	-14574
▁짬	-14575
식욕	-14576
히고	-14577
▁가끔	-14578
▁과연	-14579
▁대마	-14580
▁대해	-14581
▁돈은	-14582
▁말로	-14583
▁뭐든	-14584
▁미화	-14585
▁뻔한	-14586
▁제의	-14587
▁지디	-14588
▁화면	-14589
김정화	-14590
도상우	-14591
셨으면	-14592
쎄쎄쎄	-14593
▁본인도	-14594
▁아무나	-14595
▁없으면	-14596
▁잘했다	-14597
▁좋지만	-14598
▁않습니다	-14599
님의	-14600
도는	-14601
딸이	-14602
말로	-14603
뭐가	-14604
우고	-14605
전부	-14606
▁무리	-14607
▁보일	-14608
▁소설	-14609
▁신상	-14610
▁일진	-14611
▁죽일	-14612
▁할게	-14613
▁후기	-14614
창시절	-14615
해줘서	-14616
▁나와야	-14617
▁못생겨	-14618
▁여성들	-14619
▁육중완	-14620
▁커리어	-14621
▁했을까	-14622
▁훈훈함	-14623
이상형은	-14624
특별출연	-14625
▁단발머리	-14626
▁잉꼬부부	-14627
ou	-14628
나물	-14629
로그	-14630
메인	-14631
반대	-14632
섭외	-14633
송재	-14634
시구	-14635
신도	-14636
씩씩	-14637
이시	-14638
저히	-14639
지심	-14640
하진	-14641
현관	-14642
▁감옥	-14643
▁개성	-14644
▁깡패	-14645
▁때가	-14646
▁또또	-14647
▁백퍼	-14648
▁수치	-14649
▁아마	-14650
▁외면	-14651
▁인해	-14652
▁장담	-14653
▁죄를	-14654
▁터질	-14655
렸어요	-14656
문제는	-14657
시키는	-14658
정엄마	-14659
해줘요	-14660
황신혜	-14661
▁김민규	-14662
▁남결영	-14663
▁바람피	-14664
▁사귄다	-14665
▁안젤라	-14666
▁임지연	-14667
▁자신의	-14668
▁잘못된	-14669
▁했다면	-14670
▁강제소환	-14671
▁못생겼다	-14672
▁사건으로	-14673
▁송중기는	-14674
▁유흥업소	-14675
▁학창시절	-14676
▁f	-14677
돋는	-14678
무시	-14679
부탁	-14680
서방	-14681
성인	-14682
아쉽	-14683
안돼	-14684
애니	-14685
자살	-14686
형제	-14687
▁갈라	-14688
▁강조	-14689
▁공간	-14690
▁글에	-14691
▁기섭	-14692
▁내세	-14693
▁놓은	-14694
▁느낄	-14695
▁다해	-14696
▁상품	-14697
▁성실	-14698
▁쇼윈	-14699
▁스윗	-14700
▁온몸	-14701
▁위너	-14702
▁자부	-14703
▁잡는	-14704
▁한채	-14705
▁환희	-14706
연기로	-14707
정유나	-14708
집으로	-14709
친구가	-14710
▁괴롭혀	-14711
▁깨어나	-14712
▁누구를	-14713
▁데려가	-14714
▁레시피	-14715
▁롤모델	-14716
▁버리고	-14717
▁우연히	-14718
▁입으로	-14719
▁재혼한	-14720
▁좋겠어	-14721
▁하나로	-14722
▁안재현은	-14723
▁알아봤다	-14724
▁여론몰이	-14725
▁전자발찌	-14726
▁갤	-14727
▁숏	-14728
▁훈	-14729
고정	-14730
공평	-14731
구리	-14732
금이	-14733
길가	-14734
놀람	-14735
니엘	-14736
다신	-14737
달의	-14738
도맘	-14739
륭한	-14740
마에	-14741
멘붕	-14742
미남	-14743
미의	-14744
바닥	-14745
배상	-14746
부족	-14747
분다	-14748
섬뜩	-14749
세한	-14750
수찬	-14751
심이	-14752
앤딩	-14753
옛날	-14754
외국	-14755
유라	-14756
의가	-14757
일반	-14758
자만	-14759
젠더	-14760
조합	-14761
차림	-14762
한적	-14763
확한	-14764
▁가사	-14765
▁국경	-14766
▁나눈	-14767
▁다한	-14768
▁대답	-14769
▁독점	-14770
▁동정	-14771
▁뒷목	-14772
▁모셔	-14773
▁문신	-14774
▁미스	-14775
▁버틴	-14776
▁승소	-14777
▁심해	-14778
▁씨가	-14779
▁악역	-14780
▁앞서	-14781
▁올랐	-14782
▁외박	-14783
▁요란	-14784
▁유엔	-14785
▁임금	-14786
▁자수	-14787
▁제자	-14788
▁조각	-14789
▁조장	-14790
▁참지	-14791
▁코드	-14792
▁학생	-14793
▁해봤	-14794
▁해소	-14795
가요제	-14796
개국어	-14797
까지도	-14798
대지마	-14799
마케팅	-14800
만나는	-14801
이민호	-14802
임산부	-14803
쳤는데	-14804
▁김동준	-14805
▁남편의	-14806
▁너무한	-14807
▁누르고	-14808
▁다녀오	-14809
▁모른다	-14810
▁미안함	-14811
▁박해진	-14812
▁박효신	-14813
▁사실로	-14814
▁사진도	-14815
▁산다는	-14816
▁서예지	-14817
▁아니란	-14818
▁않지만	-14819
▁엉뚱한	-14820
▁웅앵웅	-14821
▁응원한	-14822
▁이연희	-14823
▁입소문	-14824
▁작품은	-14825
▁지난주	-14826
▁창피해	-14827
▁청순한	-14828
▁피눈물	-14829
▁학부모	-14830
▁드라마의	-14831
▁최명길에	-14832
▁피해자의	-14833
TZ	-14834
게한	-14835
결백	-14836
경고	-14837
계절	-14838
고발	-14839
국대	-14840
그날	-14841
극장	-14842
기일	-14843
기회	-14844
꿈이	-14845
끌기	-14846
단속	-14847
답지	-14848
뒀다	-14849
랭이	-14850
럴드	-14851
로로	-14852
맹이	-14853
멜론	-14854
면제	-14855
명만	-14856
목표	-14857
무라	-14858
문희	-14859
미네	-14860
받길	-14861
발전	-14862
버이	-14863
별난	-14864
비자	-14865
빠진	-14866
생생	-14867
선은	-14868
세청	-14869
셨죠	-14870
시하	-14871
아팠	-14872
안주	-14873
애기	-14874
애인	-14875
역할	-14876
영록	-14877
영향	-14878
예산	-14879
오락	-14880
왕따	-14881
요새	-14882
웃을	-14883
위권	-14884
유착	-14885
윤박	-14886
응답	-14887
자격	-14888
자금	-14889
전적	-14890
집유	-14891
철수	-14892
청탁	-14893
충역	-14894
침입	-14895
타쿠	-14896
표절	-14897
하되	-14898
한씨	-14899
해줄	-14900
형사	-14901
화문	-14902
희대	-14903
TZY	-14904
▁가릴	-14905
▁강한	-14906
▁건전	-14907
▁검증	-14908
▁공석	-14909
▁교묘	-14910
▁구성	-14911
▁길이	-14912
▁내막	-14913
▁다룬	-14914
▁되자	-14915
▁딸들	-14916
▁마츠	-14917
▁막기	-14918
▁매너	-14919
▁매도	-14920
▁박탈	-14921
▁부장	-14922
▁브라	-14923
▁비참	-14924
▁삼키	-14925
▁서류	-14926
▁수난	-14927
▁수록	-14928
▁수리	-14929
▁신라	-14930
▁악동	-14931
▁업고	-14932
▁엠넷	-14933
▁여운	-14934
▁연설	-14935
▁유료	-14936
▁의향	-14937
▁일리	-14938
▁장어	-14939
▁종편	-14940
▁증인	-14941
▁지병	-14942
▁청탁	-14943
▁추리	-14944
▁추태	-14945
▁축소	-14946
▁출판	-14947
▁치킨	-14948
▁태세	-14949
▁패소	-14950
▁표시	-14951
▁필러	-14952
▁형식	-14953
과하다	-14954
국가에	-14955
기다릴	-14956
너희는	-14957
되지만	-14958
디아크	-14959
무서운	-14960
미니즘	-14961
박지훈	-14962
방송도	-14963
봐주기	-14964
스위치	-14965
시키면	-14966
아줘서	-14967
악플은	-14968
연기자	-14969
예뻐진	-14970
일주일	-14971
장우혁	-14972
함으로	-14973
▁you	-14974
▁가기로	-14975
▁가수들	-14976
▁가요대	-14977
▁같으면	-14978
▁경희대	-14979
▁관객수	-14980
▁구독자	-14981
▁구체적	-14982
▁김윤석	-14983
▁낳았다	-14984
▁대표가	-14985
▁동성애	-14986
▁만나다	-14987
▁말아야	-14988
▁맞을까	-14989
▁무거운	-14990
▁발라드	-14991
▁벌었다	-14992
▁복귀작	-14993
▁불면증	-14994
▁사건과	-14995
▁사라진	-14996
▁사랑은	-14997
▁소확행	-14998
▁손현주	-14999
▁쇼윈도	-15000
▁수입차	-15001
▁승부수	-15002
▁시기는	-15003
▁아들도	-15004
▁아들로	-15005
▁양지원	-15006
▁없지만	-15007
▁온도차	-15008
▁왕대륙	-15009
▁우리의	-15010
▁원맨쇼	-15011
▁이규빈	-15012
▁이해해	-15013
▁잔소리	-15014
▁전쟁이	-15015
▁정은채	-15016
▁준비해	-15017
▁중학생	-15018
▁지켜야	-15019
▁토토가	-15020
▁트렌드	-15021
▁패키지	-15022
▁펜타곤	-15023
▁할거다	-15024
디자이너	-15025
음악으로	-15026
이제부터	-15027
일이라고	-15028
지옥으로	-15029
한국영화	-15030
해야겠다	-15031
헤어지지	-15032
▁김건모와	-15033
▁뛰어넘는	-15034
▁로이킴도	-15035
▁받았지만	-15036
▁보내세요	-15037
▁복귀하는	-15038
▁부끄럽고	-15039
▁분위기에	-15040
▁빅토리아	-15041
▁사귀었다	-15042
▁시선집중	-15043
▁알았는데	-15044
▁없었다면	-15045
▁연인으로	-15046
▁연하남편	-15047
▁입장표명	-15048
▁잘못했나	-15049
▁전적으로	-15050
▁태세전환	-15051
▁행복했던	-15052
▁당황스럽다	-15053
▁도와주세요	-15054
▁성추행으로	-15055
▁신라호텔서	-15056
▁여우주연상	-15057
▁리벤지포르노	-15058
▁사회복무요원	-15059
&'	-15060
-3	-15061
2,	-15062
HQ	-15063
SF	-15064
~6	-15065
·1	-15066
▁文	-15067
▁굽	-15068
▁늪	-15069
▁컵	-15070
○○	-15071
강핏	-15072
거대	-15073
거제	-15074
거진	-15075
걸릿	-15076
겨낼	-15077
결심	-15078
결점	-15079
고작	-15080
고한	-15081
골절	-15082
공갈	-15083
공약	-15084
광의	-15085
교수	-15086
구색	-15087
군과	-15088
권율	-15089
규명	-15090
규정	-15091
극성	-15092
글에	-15093
금전	-15094
기투	-15095
김간	-15096
김예	-15097
꽃뱀	-15098
꿈만	-15099
나치	-15100
낙네	-15101
냉담	-15102
노민	-15103
눈가	-15104
단짠	-15105
단체	-15106
단코	-15107
대미	-15108
더힐	-15109
도촬	-15110
돌싱	-15111
동환	-15112
됐던	-15113
딴딴	-15114
떨떨	-15115
또렷	-15116
라진	-15117
렌식	-15118
렸던	-15119
리갈	-15120
리인	-15121
막강	-15122
만성	-15123
매각	-15124
매우	-15125
메시	-15126
멘탈	-15127
명당	-15128
몬드	-15129
무료	-15130
무마	-15131
물뽕	-15132
뭉찬	-15133
미혼	-15134
민과	-15135
밍순	-15136
바타	-15137
박대	-15138
박제	-15139
발한	-15140
밝은	-15141
밤샘	-15142
배후	-15143
번개	-15144
번복	-15145
베기	-15146
변인	-15147
병기	-15148
보일	-15149
보증	-15150
분당	-15151
비방	-15152
비킴	-15153
사병	-15154
사성	-15155
살롱	-15156
상계	-15157
서특	-15158
석의	-15159
선의	-15160
설전	-15161
섭식	-15162
성경	-15163
성소	-15164
성적	-15165
성찬	-15166
셜록	-15167
소멸	-15168
소진	-15169
소탈	-15170
솔지	-15171
송월	-15172
수동	-15173
수습	-15174
숙박	-15175
스튜	-15176
시온	-15177
식가	-15178
식과	-15179
신대	-15180
신용	-15181
신정	-15182
실리	-15183
실신	-15184
실험	-15185
심위	-15186
쌍갑	-15187
안구	-15188
앞날	-15189
애플	-15190
야동	-15191
양심	-15192
양준	-15193
어딘	-15194
엄중	-15195
여혐	-15196
역국	-15197
연장	-15198
예빈	-15199
예한	-15200
우릴	-15201
우석	-15202
우에	-15203
우절	-15204
우트	-15205
원금	-15206
원망	-15207
원미	-15208
원순	-15209
원인	-15210
원정	-15211
원폭	-15212
윈스	-15213
유퉁	-15214
으리	-15215
의경	-15216
의문	-15217
인연	-15218
일과	-15219
일진	-15220
임파	-15221
입수	-15222
자막	-15223
저하	-15224
전격	-15225
절개	-15226
정정	-15227
제우	-15228
종편	-15229
주민	-15230
주식	-15231
주와	-15232
주이	-15233
진전	-15234
질적	-15235
차기	-15236
차한	-15237
채림	-15238
채에	-15239
철구	-15240
청강	-15241
체질	-15242
체험	-15243
초면	-15244
초월	-15245
최선	-15246
출격	-15247
출생	-15248
출제	-15249
치며	-15250
캐처	-15251
캠프	-15252
커버	-15253
쾌히	-15254
퀘어	-15255
킹덤	-15256
투혼	-15257
트래	-15258
특수	-15259
파일	-15260
파헤	-15261
판석	-15262
포유	-15263
포티	-15264
폭격	-15265
피에	-15266
피오	-15267
해초	-15268
행주	-15269
허각	-15270
헌시	-15271
혁건	-15272
현직	-15273
호중	-15274
호평	-15275
홀리	-15276
확대	-15277
회서	-15278
후덕	-15279
후원	-15280
')[	-15281
48’	-15282
?1]	-15283
BMA	-15284
LTE	-15285
NCT	-15286
OSE	-15287
·16	-15288
”→‘	-15289
→19	-15290
→88	-15291
▁#5	-15292
▁74	-15293
▁RM	-15294
▁↑'	-15295
▁갈게	-15296
▁강등	-15297
▁강민	-15298
▁강사	-15299
▁개정	-15300
▁거장	-15301
▁경종	-15302
▁계열	-15303
▁고심	-15304
▁과분	-15305
▁관건	-15306
▁군필	-15307
▁긋는	-15308
▁기행	-15309
▁꽉찬	-15310
▁꿈은	-15311
▁나자	-15312
▁날짜	-15313
▁냉면	-15314
▁뉘우	-15315
▁닉쿤	-15316
▁대열	-15317
▁도마	-15318
▁등돌	-15319
▁따러	-15320
▁떼어	-15321
▁뜻밖	-15322
▁띄게	-15323
▁러시	-15324
▁루피	-15325
▁막는	-15326
▁만점	-15327
▁매튜	-15328
▁명암	-15329
▁모정	-15330
▁몸살	-15331
▁못읽	-15332
▁묘연	-15333
▁무마	-15334
▁문전	-15335
▁미궁	-15336
▁민티	-15337
▁발휘	-15338
▁백골	-15339
▁볼록	-15340
▁봉인	-15341
▁부당	-15342
▁부채	-15343
▁불량	-15344
▁뽑은	-15345
▁살벌	-15346
▁살펴	-15347
▁석사	-15348
▁석상	-15349
▁성소	-15350
▁소라	-15351
▁손길	-15352
▁손소	-15353
▁솔빈	-15354
▁솔솔	-15355
▁수잔	-15356
▁수칙	-15357
▁숙여	-15358
▁순산	-15359
▁시민	-15360
▁시세	-15361
▁신씨	-15362
▁실태	-15363
▁심사	-15364
▁양과	-15365
▁역전	-15366
▁연신	-15367
▁오찬	-15368
▁올킬	-15369
▁용도	-15370
▁용산	-15371
▁원샷	-15372
▁으뜸	-15373
▁은폐	-15374
▁인도	-15375
▁일자	-15376
▁임종	-15377
▁자른	-15378
▁작살	-15379
▁잔고	-15380
▁장손	-15381
▁장착	-15382
▁저력	-15383
▁적반	-15384
▁전율	-15385
▁전이	-15386
▁전직	-15387
▁정휘	-15388
▁주선	-15389
▁중도	-15390
▁질주	-15391
▁징크	-15392
▁찌개	-15393
▁차가	-15394
▁차로	-15395
▁참변	-15396
▁철거	-15397
▁첫주	-15398
▁초유	-15399
▁총겨	-15400
▁총격	-15401
▁최성	-15402
▁최씨	-15403
▁출전	-15404
▁취한	-15405
▁칠레	-15406
▁커진	-15407
▁커쳐	-15408
▁컬러	-15409
▁콤비	-15410
▁쾌속	-15411
▁탄식	-15412
▁통한	-15413
▁퇴근	-15414
▁특훈	-15415
▁팔뚝	-15416
▁패닉	-15417
▁팬과	-15418
▁폭파	-15419
▁프롬	-15420
▁피싱	-15421
▁한양	-15422
▁한층	-15423
▁합정	-15424
▁항변	-15425
▁호출	-15426
▁혼났	-15427
▁효연	-15428
▁훈육	-15429
▁휴방	-15430
▁흐뭇	-15431
▁흡입	-15432
♥10	-15433
가수석	-15434
감격의	-15435
강원도	-15436
강태구	-15437
강핏자	-15438
거지꼴	-15439
걸릿집	-15440
고아라	-15441
곽선영	-15442
광화문	-15443
교사와	-15444
구구단	-15445
군대가	-15446
굳건히	-15447
급삭제	-15448
기투합	-15449
김부선	-15450
김성균	-15451
김창열	-15452
김태우	-15453
김호영	-15454
꾸준한	-15455
나란히	-15456
나리카	-15457
나플라	-15458
남궁연	-15459
낭군님	-15460
내꺼야	-15461
냉랭한	-15462
너랑은	-15463
노희경	-15464
누구도	-15465
다보니	-15466
다이버	-15467
다이아	-15468
단아한	-15469
대미문	-15470
더서울	-15471
도넘은	-15472
도주는	-15473
동장군	-15474
되찾은	-15475
두번째	-15476
드린다	-15477
들였다	-15478
듬직한	-15479
라스베	-15480
레이블	-15481
렸으면	-15482
로워진	-15483
룰라의	-15484
룸에서	-15485
류하는	-15486
르소나	-15487
리상점	-15488
마담이	-15489
마무리	-15490
망명설	-15491
망신살	-15492
망이로	-15493
맞았다	-15494
몰랐니	-15495
문보미	-15496
박기량	-15497
박상민	-15498
반응은	-15499
버엔딩	-15500
보충역	-15501
불안한	-15502
불쾌감	-15503
불쾌함	-15504
뷰티풀	-15505
빛나는	-15506
빨간불	-15507
뽕다발	-15508
사계절	-15509
사고로	-15510
사귄지	-15511
사동호	-15512
사실혼	-15513
사주는	-15514
상견례	-15515
상지희	-15516
서연미	-15517
서특필	-15518
서포트	-15519
소유주	-15520
손배소	-15521
솜해인	-15522
수상한	-15523
수없는	-15524
수지의	-15525
스코어	-15526
슬렁룩	-15527
승츠비	-15528
시간전	-15529
시식단	-15530
식회사	-15531
신류진	-15532
신선한	-15533
신정근	-15534
신현수	-15535
실시간	-15536
씁쓸한	-15537
씩씩한	-15538
아낙네	-15539
안준영	-15540
안혜경	-15541
애꿎은	-15542
양다일	-15543
양준무	-15544
억울해	-15545
언급된	-15546
언니가	-15547
언론에	-15548
언약식	-15549
여곡절	-15550
영자의	-15551
영학과	-15552
영화로	-15553
예정된	-15554
원하는	-15555
유기견	-15556
유정호	-15557
윤봉길	-15558
윤호연	-15559
윰블리	-15560
음으로	-15561
의도는	-15562
의외의	-15563
이겨낼	-15564
이규성	-15565
이라던	-15566
이미영	-15567
이신영	-15568
이철우	-15569
일본의	-15570
임대료	-15571
임사라	-15572
임성진	-15573
임영웅	-15574
장범준	-15575
장희웅	-15576
재판부	-15577
전재산	-15578
전태수	-15579
접불가	-15580
정동원	-15581
정보도	-15582
정신적	-15583
조진웅	-15584
조현아	-15585
조혜련	-15586
죄송한	-15587
주결경	-15588
준강간	-15589
중화권	-15590
지독한	-15591
지망생	-15592
지켜봐	-15593
진정성	-15594
질투심	-15595
찐우정	-15596
차렸다	-15597
차인표	-15598
차주혁	-15599
참담한	-15600
처음에	-15601
첨예한	-15602
청소년	-15603
초강수	-15604
촬영장	-15605
최대한	-15606
최불암	-15607
최소한	-15608
최연수	-15609
최영수	-15610
최유화	-15611
추리의	-15612
추신수	-15613
친판사	-15614
캐스트	-15615
커플링	-15616
타이밍	-15617
토크가	-15618
트윈스	-15619
파구리	-15620
파도야	-15621
패대기	-15622
페타민	-15623
하반기	-15624
하성운	-15625
한송이	-15626
핫펠트	-15627
해외서	-15628
현송월	-15629
홀딩스	-15630
화수목	-15631
화장품	-15632
황당한	-15633
휴대폰	-15634
!""(	-15635
""→'	-15636
.6%"	-15637
.9%"	-15638
100%	-15639
84)"	-15640
KPGA	-15641
OSEN	-15642
▁"43	-15643
▁'15	-15644
▁199	-15645
▁EBS	-15646
▁MBK	-15647
▁NBC	-15648
▁“11	-15649
▁간곡히	-15650
▁감독이	-15651
▁감량후	-15652
▁강력한	-15653
▁갤러리	-15654
▁경솔한	-15655
▁계약서	-15656
▁고로케	-15657
▁고민도	-15658
▁고충에	-15659
▁골절상	-15660
▁공포의	-15661
▁괜찮나	-15662
▁구사랑	-15663
▁구역의	-15664
▁구충제	-15665
▁구형에	-15666
▁국방의	-15667
▁국숫집	-15668
▁극비리	-15669
▁금전문	-15670
▁급진전	-15671
▁기대감	-15672
▁기획실	-15673
▁김건우	-15674
▁김경욱	-15675
▁김상경	-15676
▁김승우	-15677
▁김영민	-15678
▁김영호	-15679
▁김찬우	-15680
▁김창열	-15681
▁김형인	-15682
▁꼬치집	-15683
▁꿈나무	-15684
▁나타난	-15685
▁남겼다	-15686
▁남성과	-15687
▁내놓은	-15688
▁노력의	-15689
▁노희영	-15690
▁논란될	-15691
▁논란을	-15692
▁놀라워	-15693
▁농구장	-15694
▁놓였다	-15695
▁놓을까	-15696
▁늘었다	-15697
▁대리인	-15698
▁대이변	-15699
▁던말릭	-15700
▁동창과	-15701
▁디스크	-15702
▁또다시	-15703
▁뜬금포	-15704
▁뜻밖에	-15705
▁레이첼	-15706
▁레트로	-15707
▁류효영	-15708
▁리벤지	-15709
▁마츠이	-15710
▁만우절	-15711
▁만으로	-15712
▁맺는다	-15713
▁맺었다	-15714
▁멤버로	-15715
▁면했다	-15716
▁모나코	-15717
▁몰디브	-15718
▁몽골인	-15719
▁무큐리	-15720
▁문성근	-15721
▁묻겠다	-15722
▁뭉친다	-15723
▁민우혁	-15724
▁박초롱	-15725
▁박현선	-15726
▁발표할	-15727
▁방문기	-15728
▁방문에	-15729
▁배재준	-15730
▁백지원	-15731
▁백청강	-15732
▁보답할	-15733
▁보여드	-15734
▁봐달라	-15735
▁부른다	-15736
▁부인에	-15737
▁부족함	-15738
▁부추긴	-15739
▁블루문	-15740
▁빌려준	-15741
▁빛났던	-15742
▁사귀던	-15743
▁사이라	-15744
▁산불에	-15745
▁살리기	-15746
▁살인죄	-15747
▁상대는	-15748
▁상처들	-15749
▁새둥지	-15750
▁서주원	-15751
▁선정성	-15752
▁성수동	-15753
▁세웠다	-15754
▁손님이	-15755
▁손인사	-15756
▁손잡은	-15757
▁손편지	-15758
▁수난기	-15759
▁슈트핏	-15760
▁슈퍼카	-15761
▁스타들	-15762
▁스타쉽	-15763
▁시간은	-15764
▁시댁서	-15765
▁시상자	-15766
▁시험대	-15767
▁신원호	-15768
▁실망감	-15769
▁아내에	-15770
▁아빠라	-15771
▁아이비	-15772
▁알려질	-15773
▁알리며	-15774
▁애인과	-15775
▁약혼녀	-15776
▁엄지영	-15777
▁에일리	-15778
▁여교사	-15779
▁여의사	-15780
▁열흘째	-15781
▁오보에	-15782
▁오은영	-15783
▁오정태	-15784
▁외질혜	-15785
▁유별난	-15786
▁유이와	-15787
▁유포시	-15788
▁유포한	-15789
▁유호진	-15790
▁음문석	-15791
▁이국종	-15792
▁이럴까	-15793
▁이스트	-15794
▁이주노	-15795
▁이혜리	-15796
▁인간미	-15797
▁인사에	-15798
▁일반병	-15799
▁자세로	-15800
▁자초한	-15801
▁잘해낼	-15802
▁잠적설	-15803
▁장용준	-15804
▁재편집	-15805
▁전무후	-15806
▁전환기	-15807
▁정마담	-15808
▁정재영	-15809
▁제작자	-15810
▁제주로	-15811
▁조사서	-15812
▁조사할	-15813
▁조성하	-15814
▁조수원	-15815
▁조혜정	-15816
▁죄송해	-15817
▁주목한	-15818
▁죽이고	-15819
▁즐겁게	-15820
▁지방종	-15821
▁지온이	-15822
▁집부터	-15823
▁참았다	-15824
▁청담동	-15825
▁초밀착	-15826
▁촬영중	-15827
▁촬영지	-15828
▁최고치	-15829
▁최소화	-15830
▁출산할	-15831
▁캐서린	-15832
▁코카인	-15833
▁쿠바서	-15834
▁탈락자	-15835
▁투데이	-15836
▁튜더와	-15837
▁팬들이	-15838
▁편안한	-15839
▁포렌식	-15840
▁포함된	-15841
▁풀공개	-15842
▁프레스	-15843
▁프렌즈	-15844
▁피우는	-15845
▁핑클의	-15846
▁하반기	-15847
▁한마음	-15848
▁한채씩	-15849
▁행위도	-15850
▁환치기	-15851
▁황금폰	-15852
▁황당해	-15853
▁휩싸여	-15854
♥︎""	-15855
가로세로	-15856
가요대전	-15857
개미허리	-15858
개월만의	-15859
걱정하게	-15860
건강하되	-15861
결혼발표	-15862
구하라가	-15863
국제소송	-15864
김소희와	-15865
김예나의	-15866
깔끔하게	-15867
꿈뜨락몰	-15868
나리카노	-15869
내용증명	-15870
놀람주의	-15871
더치페이	-15872
두문불출	-15873
드라마는	-15874
라이어티	-15875
라이온킹	-15876
러브캐처	-15877
류화영과	-15878
리갈하이	-15879
마약김치	-15880
만난사이	-15881
모유수유	-15882
몰카파문	-15883
미스러운	-15884
박나래와	-15885
박민정에	-15886
박시후와	-15887
박신혜와	-15888
방송금지	-15889
병역기피	-15890
봄이온다	-15891
봉와직염	-15892
부담감에	-15893
부모사기	-15894
블랙팬서	-15895
비하발언	-15896
살아줘서	-15897
서효림과	-15898
셀프실험	-15899
스브수다	-15900
시시비비	-15901
신중하지	-15902
실명공개	-15903
심쿵주의	-15904
쌍갑포차	-15905
아카데미	-15906
양성반응	-15907
여배우와	-15908
원만하게	-15909
유재석에	-15910
이동욱과	-15911
이번에도	-15912
인성논란	-15913
임신중절	-15914
입막음용	-15915
장미여관	-15916
정식부부	-15917
정해인의	-15918
정해인이	-15919
조인성과	-15920
좋아해요	-15921
지인들도	-15922
진리상점	-15923
짜장라면	-15924
최수종에	-15925
최종우승	-15926
축하물결	-15927
크레용팝	-15928
키스먼저	-15929
택시기사	-15930
트래블러	-15931
파헤치기	-15932
페르소나	-15933
페미니즘	-15934
프로답지	-15935
피에스타	-15936
하늘에선	-15937
해명에도	-15938
해외연예	-15939
행복하다	-15940
현지인과	-15941
홀리데이	-15942
홍종현과	-15943
홍진영과	-15944
히든카드	-15945
!""..	-15946
'?...	-15947
...'♥	-15948
...14	-15949
...29	-15950
...“‘	-15951
1987’	-15952
▁""'1	-15953
▁"'99	-15954
▁...'	-15955
▁간직할게	-15956
▁걸그룹의	-15957
▁관리하고	-15958
▁관찰일지	-15959
▁교제시작	-15960
▁권태기로	-15961
▁귀책사유	-15962
▁기소유예	-15963
▁기적같은	-15964
▁김의성과	-15965
▁김정은에	-15966
▁김학의와	-15967
▁꿈뜨락몰	-15968
▁남보라와	-15969
▁내기골프	-15970
▁네티즌에	-15971
▁다이어터	-15972
▁대서특필	-15973
▁댄스까지	-15974
▁도시락집	-15975
▁돌담병원	-15976
▁동반참석	-15977
▁동성열애	-15978
▁등장까지	-15979
▁라이관린	-15980
▁만났지만	-15981
▁멈춰달라	-15982
▁무대인사	-15983
▁박민영과	-15984
▁박유천과	-15985
▁반했어요	-15986
▁백종원에	-15987
▁범죄행위	-15988
▁법인카드	-15989
▁법적부부	-15990
▁보고있나	-15991
▁부녀관계	-15992
▁부부탄생	-15993
▁부인까지	-15994
▁불법주차	-15995
▁비주얼로	-15996
▁비참했다	-15997
▁사법처리	-15998
▁상습도박	-15999
▁상태에서	-16000
▁설인아에	-16001
▁소속사로	-16002
▁소환조사	-16003
▁손소독제	-16004
▁손예진에	-16005
▁솔직입담	-16006
▁송승헌과	-16007
▁송중기의	-16008
▁스테파니	-16009
▁시작되나	-16010
▁시집살이	-16011
▁신선식품	-16012
▁심려끼쳐	-16013
▁심신미약	-16014
▁아빠됐다	-16015
▁안와골절	-16016
▁엇갈리는	-16017
▁에프엑스	-16018
▁여배우와	-16019
▁여행사진	-16020
▁연애전선	-16021
▁열애부터	-16022
▁예뻐졌다	-16023
▁오만석에	-16024
▁완벽했다	-16025
▁외모비하	-16026
▁움직일까	-16027
▁웹드라마	-16028
▁음성반응	-16029
▁의기투합	-16030
▁의미있는	-16031
▁이들처럼	-16032
▁이때부터	-16033
▁이뤄질까	-16034
▁이선균에	-16035
▁이지은에	-16036
▁입금전후	-16037
▁자진출석	-16038
▁잠재울까	-16039
▁적반하장	-16040
▁전면부인	-16041
▁전면중단	-16042
▁정승우와	-16043
▁정준영과	-16044
▁제작중단	-16045
▁조기종영	-16046
▁조사받아	-16047
▁진수성찬	-16048
▁청소하라	-16049
▁청원까지	-16050
▁추억하다	-16051
▁출연금지	-16052
▁출연정지	-16053
▁출연취소	-16054
▁클로즈업	-16055
▁키울게요	-16056
▁택시기사	-16057
▁파격적인	-16058
▁판사님께	-16059
▁펀치넬로	-16060
▁프라이빗	-16061
▁프롬프터	-16062
▁프리패스	-16063
▁하차요구	-16064
▁학폭논란	-16065
▁한류스타	-16066
▁한예슬이	-16067
▁한지민에	-16068
▁혼인파탄	-16069
가수석인지	-16070
걸어보고서	-16071
다이아몬드	-16072
달팽이호텔	-16073
멜로가체질	-16074
뮤지컬배우	-16075
바람이분다	-16076
블랙레이블	-16077
블랙원피스	-16078
사동호랭이	-16079
사랑스러워	-16080
사랑합니다	-16081
사생활이라	-16082
사이코지만	-16083
서포트한다	-16084
스타하우스	-16085
야반도주는	-16086
인생캐릭터	-16087
하루하루가	-16088
해프닝으로	-16089
▁"""14	-16090
▁""500	-16091
▁"'-20	-16092
▁‘2018	-16093
▁가요대축제	-16094
▁골든글로브	-16095
▁궁전의추억	-16096
▁기부하고도	-16097
▁로열패밀리	-16098
▁미니시리즈	-16099
▁버라이어티	-16100
▁사과했지만	-16101
▁사실이지만	-16102
▁성형의혹에	-16103
▁알아차렸다	-16104
▁음주사고로	-16105
▁조심스럽다	-16106
▁지드래곤과	-16107
▁창피해서가	-16108
▁팥칼국숫집	-16109
▁피아니스트	-16110
▁피해자일까	-16111
▁할리우드서	-16112
네어레코즈와	-16113
더서울어워즈	-16114
미스터라디오	-16115
백일의낭군님	-16116
일로만난사이	-16117
▁"""500	-16118
▁"‘2019	-16119
▁91.19'	-16120
▁♥""...	-16121
▁베를린영화제	-16122
▁이스트라이트	-16123
▁지역비하발언	-16124
▁헤어스타일로	-16125
▁일리네어레코즈와	-16126
-2	-16127
▁톡	-16128
강고	-16129
같던	-16130
긋기	-16131
단한	-16132
들린	-16133
문가	-16134
미담	-16135
믿기	-16136
상권	-16137
소득	-16138
소울	-16139
시련	-16140
신흥	-16141
아맛	-16142
어쩔	-16143
와인	-16144
유엔	-16145
타카	-16146
팬과	-16147
플래	-16148
헤이	-16149
ack	-16150
▁기내	-16151
▁디바	-16152
▁불문	-16153
▁불응	-16154
▁사안	-16155
▁시각	-16156
▁엠버	-16157
▁영웅	-16158
▁음란	-16159
▁정지	-16160
▁찌운	-16161
▁차기	-16162
▁처단	-16163
▁토끼	-16164
▁한수	-16165
▁화끈	-16166
모두가	-16167
박은빈	-16168
부러움	-16169
신은경	-16170
여은파	-16171
울면서	-16172
육아는	-16173
이나영	-16174
이승우	-16175
이요한	-16176
이재황	-16177
임수정	-16178
정창영	-16179
지금도	-16180
첫키스	-16181
초유의	-16182
화목한	-16183
▁금강고	-16184
▁기념식	-16185
▁남기로	-16186
▁목표는	-16187
▁물거품	-16188
▁백성현	-16189
▁병무청	-16190
▁안보현	-16191
▁욱일기	-16192
▁이상순	-16193
▁입양한	-16194
▁장문의	-16195
▁장민호	-16196
▁정조준	-16197
▁조사중	-16198
▁짧지만	-16199
▁최유화	-16200
▁큰딸과	-16201
▁한지선	-16202
▁해명글	-16203
▁헤어지	-16204
롤모델은	-16205
무관학교	-16206
아무것도	-16207
유명배우	-16208
응급치료	-16209
인기피증	-16210
입장표명	-16211
피해자와	-16212
한다더니	-16213
▁무기징역	-16214
▁백퍼센트	-16215
▁보내겠다	-16216
▁부부된다	-16217
▁불문하고	-16218
▁쌍방폭행	-16219
▁연예활동	-16220
▁완전체로	-16221
▁은방울꽃	-16222
▁의상논란	-16223
▁이영자의	-16224
▁일급비밀	-16225
▁조재현의	-16226
▁첫날부터	-16227
▁추억여행	-16228
예비신랑과	-16229
한복인터뷰	-16230
▁인사드려요	-16231
''	-16232
'+	-16233
CN	-16234
감회	-16235
국의	-16236
루엣	-16237
맞고	-16238
셀럽	-16239
온유	-16240
중히	-16241
회원	-16242
후끈	-16243
]'♥	-16244
▁갚을	-16245
▁노예	-16246
▁다사	-16247
▁받지	-16248
▁번다	-16249
▁북미	-16250
▁여보	-16251
▁전력	-16252
▁힘찬	-16253
도시락	-16254
문제의	-16255
사회적	-16256
스모키	-16257
팬들의	-16258
할까요	-16259
▁공개로	-16260
▁교회서	-16261
▁그립고	-16262
▁급만남	-16263
▁기러기	-16264
▁네번째	-16265
▁노래방	-16266
▁사과로	-16267
▁시원한	-16268
▁실루엣	-16269
▁아이로	-16270
▁움직임	-16271
▁일으켜	-16272
▁장현승	-16273
▁정중히	-16274
▁정찬우	-16275
▁쳐들어	-16276
▁가슴수술	-16277
▁가짜연애	-16278
▁기소의견	-16279
▁다사다난	-16280
▁대처하는	-16281
▁아들이면	-16282
▁여기까지	-16283
▁외로웠던	-16284
▁조카바보	-16285
▁중단까지	-16286
▁처음부터	-16287
▁함소원과	-16288
...""3	-16289
.0	-16290
고향	-16291
무지	-16292
스님	-16293
스더	-16294
우영	-16295
은밀	-16296
최성	-16297
취미	-16298
타니	-16299
▁번호	-16300
▁붙은	-16301
▁성당	-16302
▁우월	-16303
▁정글	-16304
▁증오	-16305
▁짜릿	-16306
감당할	-16307
다리가	-16308
대탈출	-16309
동료들	-16310
어주는	-16311
어하루	-16312
전혜진	-16313
주민들	-16314
하이힐	-16315
▁갑시다	-16316
▁김지훈	-16317
▁별개로	-16318
▁스토킹	-16319
▁원만한	-16320
▁유발자	-16321
▁임효성	-16322
브로맨쇼	-16323
제이블랙	-16324
하이에나	-16325
""·""	-16326
▁누구길래	-16327
▁증명할까	-16328
▁키우겠다	-16329
너의결혼식	-16330
.6%...	-16331
▁G	-16332
가사	-16333
글씨	-16334
김송	-16335
남주	-16336
돈나	-16337
무엇	-16338
붓기	-16339
사카	-16340
송해	-16341
숨멎	-16342
신호	-16343
어딜	-16344
여러	-16345
이언	-16346
첼라	-16347
!..	-16348
▁급성	-16349
▁대가	-16350
▁되냐	-16351
▁레오	-16352
▁리틀	-16353
▁보증	-16354
▁서다	-16355
▁선한	-16356
▁심화	-16357
▁오전	-16358
▁유작	-16359
▁점령	-16360
▁폄하	-16361
대성공	-16362
데이지	-16363
박신양	-16364
수많은	-16365
시사회	-16366
이지성	-16367
지금의	-16368
질심사	-16369
타깝고	-16370
현명한	-16371
▁PPL	-16372
▁갑상선	-16373
▁강유미	-16374
▁깨달아	-16375
▁달랐다	-16376
▁도왔다	-16377
▁떠들썩	-16378
▁마돈나	-16379
▁명배우	-16380
▁불안한	-16381
▁사과에	-16382
▁사과할	-16383
▁사이에	-16384
▁세븐틴	-16385
▁영상에	-16386
▁윤유선	-16387
▁잡아라	-16388
▁짜릿한	-16389
▁코다리	-16390
▁터뜨린	-16391
▁포에버	-16392
거짓해명	-16393
보디슈트	-16394
안타깝다	-16395
천경찰서	-16396
해주시길	-16397
▁무릎꿇고	-16398
▁벗어날까	-16399
▁용기있는	-16400
▁전화번호	-16401
▁플레디스	-16402
▁힘들어해	-16403
공부가머니	-16404
쁘띠시언스쿨	-16405
이상한나라의	-16406
AT	-16407
^^	-16408
▁뛴	-16409
격의	-16410
굳이	-16411
도피	-16412
랐던	-16413
마일	-16414
명일	-16415
무부	-16416
물게	-16417
선임	-16418
수갑	-16419
아랑	-16420
애나	-16421
어날	-16422
여야	-16423
여유	-16424
유감	-16425
자책	-16426
제차	-16427
주려	-16428
파파	-16429
퍼비	-16430
ION	-16431
▁경력	-16432
▁괴담	-16433
▁권율	-16434
▁박호	-16435
▁사골	-16436
▁산모	-16437
▁와전	-16438
▁윤상	-16439
▁잘한	-16440
▁정명	-16441
▁척척	-16442
▁쾌조	-16443
그립고	-16444
롱당한	-16445
불이익	-16446
성공한	-16447
심은진	-16448
았지만	-16449
지니스	-16450
지상렬	-16451
하재숙	-16452
▁'♡'	-16453
▁LTE	-16454
▁고윤성	-16455
▁꺼냈다	-16456
▁대처에	-16457
▁몸매에	-16458
▁사유리	-16459
▁사죄의	-16460
▁신호탄	-16461
▁외제차	-16462
▁재선임	-16463
▁죽였나	-16464
▁지웠다	-16465
▁지적한	-16466
▁최선의	-16467
▁포르투	-16468
스러웠던	-16469
실질심사	-16470
파렴치한	-16471
▁신혼부부	-16472
▁원테이블	-16473
▁정유미와	-16474
▁하드캐리	-16475
▁해명까지	-16476
따로또같이	-16477
▁포방터시장	-16478
SP	-16479
가난	-16480
건물	-16481
골탈	-16482
공판	-16483
리베	-16484
반격	-16485
수트	-16486
였음	-16487
진호	-16488
축학	-16489
치명	-16490
컬리	-16491
향한	-16492
▁기일	-16493
▁끓여	-16494
▁낼까	-16495
▁속앓	-16496
▁숨어	-16497
▁시호	-16498
▁열어	-16499
▁울며	-16500
▁원스	-16501
▁일탈	-16502
▁카레	-16503
▁컬킨	-16504
▁할말	-16505
▁화살	-16506
골탈태	-16507
구준회	-16508
로봇이	-16509
리베카	-16510
배지현	-16511
병상련	-16512
에스더	-16513
여행설	-16514
유령을	-16515
이미자	-16516
이성우	-16517
이에요	-16518
이준혁	-16519
자였다	-16520
주일째	-16521
차공판	-16522
▁DSP	-16523
▁가녀린	-16524
▁것일까	-16525
▁급격히	-16526
▁나이트	-16527
▁대공개	-16528
▁독립군	-16529
▁맞선녀	-16530
▁모르게	-16531
▁문보미	-16532
▁박호산	-16533
▁반박에	-16534
▁불러올	-16535
▁블락비	-16536
▁상하이	-16537
▁세차장	-16538
▁신영수	-16539
▁안되는	-16540
▁에너지	-16541
▁연루설	-16542
▁영화계	-16543
▁이경영	-16544
▁질문엔	-16545
▁크루즈	-16546
▁페이크	-16547
▁허영란	-16548
▁후임은	-16549
덮밥집에	-16550
휴대전화	-16551
?""[★	-16552
▁공개까지	-16553
▁공개연인	-16554
▁동병상련	-16555
▁말아달라	-16556
▁사무엘황	-16557
▁악플러와	-16558
▁어린시절	-16559
▁영화같은	-16560
▁이유있는	-16561
▁필요했다	-16562
▁휘몰아친	-16563
히트메이커	-16564
▁않겠습니다	-16565
▁큰아버지도	-16566
OS	-16567
경구	-16568
경기	-16569
과해	-16570
기증	-16571
백지	-16572
스키	-16573
영재	-16574
잠시	-16575
지능	-16576
취리	-16577
파동	-16578
히티	-16579
▁52	-16580
▁UN	-16581
▁개막	-16582
▁고무	-16583
▁끄는	-16584
▁나름	-16585
▁롤러	-16586
▁면목	-16587
▁쉬자	-16588
▁야한	-16589
▁재앙	-16590
▁했지	-16591
강태오	-16592
김동준	-16593
년간의	-16594
략난감	-16595
설경구	-16596
아비치	-16597
이현경	-16598
차이로	-16599
최무성	-16600
▁'20	-16601
▁SOS	-16602
▁겸손한	-16603
▁난리난	-16604
▁당당해	-16605
▁보냈다	-16606
▁소식도	-16607
▁여왕의	-16608
▁예고된	-16609
▁재정비	-16610
▁포옹에	-16611
가짜뉴스	-16612
독보적인	-16613
정상방송	-16614
팩트체크	-16615
하늘에서	-16616
함께해줘	-16617
.4%'"	-16618
▁고백부터	-16619
▁동방우와	-16620
▁루푸스병	-16621
▁모유수유	-16622
▁수영장서	-16623
▁예쁜누나	-16624
▁임신했다	-16625
▁특수분장	-16626
스타메이커	-16627
▁'2018	-16628
▁패셔니스타	-16629
▁평창올림픽	-16630
단에	-16631
란의	-16632
병증	-16633
빠져	-16634
뿔난	-16635
석방	-16636
세라	-16637
온통	-16638
용돈	-16639
우나	-16640
주량	-16641
주미	-16642
청결	-16643
촌동	-16644
출원	-16645
▁걸로	-16646
▁극한	-16647
▁날개	-16648
▁멋짐	-16649
▁발칵	-16650
▁우연	-16651
▁울분	-16652
▁지짐	-16653
▁팀장	-16654
년연속	-16655
신기록	-16656
쓰총과	-16657
역사적	-16658
운전자	-16659
유느님	-16660
작년에	-16661
정하나	-16662
제대로	-16663
초밥집	-16664
코리안	-16665
한상진	-16666
희귀병	-16667
▁AKB	-16668
▁개막식	-16669
▁검토중	-16670
▁먹먹한	-16671
▁민진웅	-16672
▁받을까	-16673
▁부인한	-16674
▁사고에	-16675
▁사이버	-16676
▁진흙탕	-16677
▁청파동	-16678
▁취재진	-16679
▁카라타	-16680
▁폭행설	-16681
디네이션	-16682
소속사는	-16683
왕쓰총과	-16684
최강창민	-16685
▁"[55	-16686
▁김소연에	-16687
▁부족해서	-16688
▁빼들었다	-16689
▁실명공개	-16690
▁영상삭제	-16691
▁테리우스	-16692
▁팬서비스	-16693
가인이어라	-16694
▁내려놓겠다	-16695
'""...'	-16696
날렵	-16697
마조	-16698
비판	-16699
악뮤	-16700
영기	-16701
충전	-16702
핫한	-16703
▁[‘	-16704
▁가벼	-16705
▁그들	-16706
▁긍정	-16707
▁미운	-16708
▁빠뜨	-16709
▁소연	-16710
▁오나	-16711
▁위암	-16712
▁유도	-16713
▁자책	-16714
대반전	-16715
마조마	-16716
안병증	-16717
이세창	-16718
장게장	-16719
주윤발	-16720
?""[	-16721
▁기은세	-16722
▁김세연	-16723
▁김지혜	-16724
▁대놓고	-16725
▁도넘은	-16726
▁사춘기	-16727
▁엉뚱해	-16728
▁유경아	-16729
▁정신적	-16730
▁정은지	-16731
▁촬영물	-16732
태국여행	-16733
▁강렬했던	-16734
▁결혼부터	-16735
▁고등학생	-16736
▁의혹에도	-16737
▁전소민에	-16738
▁조마조마	-16739
▁홀쭉해진	-16740
기상캐스터	-16741
’”	-16742
공익	-16743
뇌물	-16744
디테	-16745
진증	-16746
▁56	-16747
▁“3	-16748
▁가동	-16749
▁긴밀	-16750
▁껑충	-16751
▁두배	-16752
▁뚫은	-16753
▁손에	-16754
▁수목	-16755
▁운집	-16756
▁정치	-16757
미스함	-16758
병아리	-16759
심은경	-16760
이기에	-16761
장군의	-16762
▁걸렸다	-16763
▁남다름	-16764
▁메뉴는	-16765
▁바꾸기	-16766
▁박영규	-16767
▁비슷한	-16768
▁사직서	-16769
▁소길리	-16770
▁애즈원	-16771
▁잘할게	-16772
▁장거리	-16773
▁진아름	-16774
▁최동훈	-16775
▁핫도그	-16776
삼남매와	-16777
이상우와	-16778
주취상태	-16779
▁강하늘과	-16780
▁사람으로	-16781
▁사랑하고	-16782
▁이태임의	-16783
▁조작의혹	-16784
농염주의보	-16785
현장스케치	-16786
▁사람이었다	-16787
▁사생활이라	-16788
미스함무라비	-16789
리티	-16790
방조	-16791
성비	-16792
수저	-16793
작두	-16794
전도	-16795
절제	-16796
태성	-16797
▁덕후	-16798
▁백배	-16799
▁성찰	-16800
▁쇄골	-16801
▁일기	-16802
강지영	-16803
건축학	-16804
리벤지	-16805
와이드	-16806
▁강태성	-16807
▁류승룡	-16808
▁수목극	-16809
▁시간에	-16810
▁오열의	-16811
▁일이라	-16812
▁있는거	-16813
▁한석준	-16814
는사랑을	-16815
매니저와	-16816
▁뉴이스트	-16817
▁백년해로	-16818
▁증명사진	-16819
▁화장실서	-16820
▁월드와이드	-16821
는사랑을싣고	-16822
▁흠	-16823
세금	-16824
셉트	-16825
오나	-16826
잉이	-16827
태환	-16828
▁규모	-16829
▁백성	-16830
▁변동	-16831
▁식욕	-16832
▁약물	-16833
▁올렸	-16834
▁탓에	-16835
▁화난	-16836
공유의	-16837
류수영	-16838
리수상	-16839
소시효	-16840
실인증	-16841
양치승	-16842
었거든	-16843
월화극	-16844
유보화	-16845
▁고수정	-16846
▁김영철	-16847
▁눈물이	-16848
▁똑같아	-16849
▁병원장	-16850
▁의연한	-16851
▁적응력	-16852
▁지민이	-16853
▁청첩장	-16854
▁콘셉트	-16855
아들에게	-16856
▁""12	-16857
▁...‘	-16858
▁고통받아	-16859
▁불법투약	-16860
▁솔직하게	-16861
▁입열었다	-16862
▁"""17	-16863
▁슈퍼히어로	-16864
▁안면실인증	-16865
★→	-16866
선발	-16867
요환	-16868
으른	-16869
자폐	-16870
조부	-16871
좋다	-16872
주택	-16873
타리	-16874
희원	-16875
▁‘4	-16876
▁경련	-16877
▁따끔	-16878
▁전에	-16879
▁정안	-16880
▁충만	-16881
그럽게	-16882
소확행	-16883
임요환	-16884
적절한	-16885
평온한	-16886
▁감독의	-16887
▁국과수	-16888
▁보인다	-16889
▁조미녀	-16890
▁참가자	-16891
레스토랑	-16892
이종석과	-16893
▁모녀관계	-16894
미쓰코리아	-16895
MB	-16896
입양	-16897
절차	-16898
크게	-16899
▁메세	-16900
▁미인	-16901
▁바꿀	-16902
▁사직	-16903
▁승화	-16904
▁여장	-16905
▁있던	-16906
▁짝꿍	-16907
가해자	-16908
꿀뚝뚝	-16909
열애중	-16910
오스틴	-16911
태국서	-16912
▁가창력	-16913
▁박종진	-16914
▁박태환	-16915
▁안한지	-16916
▁울타리	-16917
▁지상렬	-16918
▁찬란한	-16919
▁확연히	-16920
이경규는	-16921
충격적인	-16922
톱모델의	-16923
▁비현실적	-16924
▁살아간다	-16925
▁쇼호스트	-16926
▁애틋해진	-16927
▁여대생과	-16928
▁조인성과	-16929
▁돌아오겠다	-16930
권호	-16931
신분	-16932
왁굳	-16933
줬나	-16934
폭염	-16935
▁살쪘	-16936
▁위주	-16937
궁금증	-16938
김하경	-16939
오빠는	-16940
정해진	-16941
치명적	-16942
▁건강미	-16943
▁곽동연	-16944
▁남겨둔	-16945
▁바꿀까	-16946
▁어디로	-16947
▁재조사	-16948
▁전셋집	-16949
공소시효	-16950
범죄도시	-16951
▁리얼리티	-16952
▁스타일링	-16953
▁아름다움	-16954
▁언급하며	-16955
▁이혜성이	-16956
▁함박웃음	-16957
▁웨딩드레스	-16958
단열	-16959
리브	-16960
보인	-16961
야마	-16962
어머	-16963
유증	-16964
이엇	-16965
입덧	-16966
항상	-16967
-1,	-16968
▁미끼	-16969
▁사토	-16970
▁엉망	-16971
▁컸다	-16972
▁파괴	-16973
미쳤어	-16974
스페셜	-16975
이연복	-16976
이태리	-16977
정은지	-16978
진화의	-16979
친구의	-16980
▁갈리는	-16981
▁강해질	-16982
▁귀여움	-16983
▁기다릴	-16984
▁기억할	-16985
▁신봉선	-16986
▁엄마들	-16987
▁진선규	-16988
▁탄생기	-16989
▁후유증	-16990
선우은숙	-16991
▁스물여섯	-16992
▁폐렴으로	-16993
섬유근육통	-16994
LJ	-16995
▁흉	-16996
장만	-16997
잭팟	-16998
증량	-16999
집착	-17000
▁68	-17001
▁금융	-17002
▁대형	-17003
▁우한	-17004
▁우현	-17005
▁음모	-17006
▁휘어	-17007
실에서	-17008
에잇디	-17009
의사계	-17010
이다인	-17011
진아름	-17012
한폭탄	-17013
▁김원중	-17014
▁김한길	-17015
▁데뷔설	-17016
▁독하게	-17017
▁돌연사	-17018
▁병원비	-17019
▁빼닮은	-17020
▁생일상	-17021
▁이미도	-17022
▁지우고	-17023
주말사용	-17024
▁붙잡았다	-17025
❤︎	-17026
나랏	-17027
말싸	-17028
복학	-17029
의욕	-17030
친근	-17031
트키	-17032
희순	-17033
▁상당	-17034
▁야식	-17035
그만사	-17036
다비치	-17037
말싸미	-17038
비행기	-17039
콰이엇	-17040
행복해	-17041
▁김민교	-17042
▁드러머	-17043
▁따돌림	-17044
▁말없이	-17045
▁박희순	-17046
▁배두나	-17047
▁서초동	-17048
▁압박감	-17049
▁어두운	-17050
▁전미라	-17051
▁치트키	-17052
개월여만	-17053
▁출산소식	-17054
나랏말싸미	-17055
롯데	-17056
월세	-17057
▁단념	-17058
▁떡밥	-17059
▁무료	-17060
▁숨죽	-17061
▁이화	-17062
▁전생	-17063
미쓰백	-17064
쇼핑몰	-17065
엉뚱한	-17066
정고시	-17067
▁늘씬한	-17068
▁맞벌이	-17069
▁보이스	-17070
▁이용대	-17071
▁정진영	-17072
냉장고를	-17073
썸바이벌	-17074
캡틴마블	-17075
현무학당	-17076
▁돌아가신	-17077
▁발리에서	-17078
▁일어나지	-17079
▁최종우승	-17080
보면	-17081
비극	-17082
승장	-17083
시나	-17084
우다	-17085
혹적	-17086
▁까닭	-17087
▁뒤로	-17088
▁성대	-17089
▁유행	-17090
▁저의	-17091
▁절규	-17092
▁주사	-17093
▁초과	-17094
▁텐션	-17095
먹다짐	-17096
승장구	-17097
열애도	-17098
주셨다	-17099
?""(	-17100
Love	-17101
▁물었다	-17102
▁송영학	-17103
▁스타크	-17104
▁웃음꽃	-17105
으로부터	-17106
태진아와	-17107
▁승승장구	-17108
▁알아냈다	-17109
▁주먹다짐	-17110
▁황바울과	-17111
리니	-17112
봉이	-17113
하듯	-17114
현숙	-17115
▁중고	-17116
▁하에	-17117
경수진	-17118
유호진	-17119
이수진	-17120
이재용	-17121
채시라	-17122
▁보내길	-17123
▁선발대	-17124
▁성대모	-17125
▁실수로	-17126
▁의외의	-17127
▁인기녀	-17128
하겠습니다	-17129
▁디모스트엔터와	-17130
경련	-17131
남성	-17132
베개	-17133
왕전	-17134
▁걸고	-17135
▁넘게	-17136
▁예지	-17137
▁왕중	-17138
한국은	-17139
▁꾸미기	-17140
▁전설의	-17141
▁찾아오	-17142
▁하고픈	-17143
▁독박육아	-17144
▁왕중왕전	-17145
▁혼자만의	-17146
둘이	-17147
드업	-17148
장발	-17149
하단	-17150
▁배송	-17151
▁춘천	-17152
김찬우	-17153
말라도	-17154
시월드	-17155
연기력	-17156
집에서	-17157
탠드업	-17158
현진영	-17159
▁맹활약	-17160
▁전시회	-17161
결혼으로	-17162
힘내세요	-17163
▁히가시데	-17164
거센	-17165
도암	-17166
명절	-17167
자백	-17168
허세	-17169
▁날린	-17170
▁말은	-17171
▁큰형	-17172
▁태풍	-17173
현아의	-17174
▁죽였어	-17175
▁호텔서	-17176
신현준도	-17177
...12	-17178
▁슬림해진	-17179
▁인스타에	-17180
풀려나고파	-17181
▁콧	-17182
복스	-17183
순남	-17184
함을	-17185
▁이끌	-17186
스파이	-17187
였음을	-17188
▁가족이	-17189
▁김민승	-17190
▁떠나요	-17191
▁박해일	-17192
▁알려져	-17193
▁애꿎은	-17194
▁이선희	-17195
▁클릭비	-17196
베이비복스	-17197
경민	-17198
력에	-17199
선넘	-17200
슬러	-17201
우미	-17202
울지	-17203
일꾼	-17204
진수	-17205
▁납부	-17206
▁너의	-17207
▁변함	-17208
▁강남의	-17209
▁김갑수	-17210
▁도우미	-17211
▁조민아	-17212
▁핫하다	-17213
▁등장하는	-17214
국경없는포차	-17215
대왕	-17216
만만	-17217
망스	-17218
얼마	-17219
▁나랑	-17220
▁노화	-17221
▁최용	-17222
게릴라	-17223
김민재	-17224
레슬러	-17225
류상욱	-17226
문세윤	-17227
▁귀엽고	-17228
▁김혜진	-17229
▁넘사벽	-17230
▁배기성	-17231
▁탕웨이	-17232
▁흑기사	-17233
레이노병	-17234
아역배우	-17235
▁정상방송	-17236
▁조윤희에	-17237
▁팥칼국수	-17238
▁한의사와	-17239
도발	-17240
비포	-17241
신생	-17242
아가	-17243
차고	-17244
▁뺏겨	-17245
▁안내	-17246
▁연쇄	-17247
▁자국	-17248
▁정성	-17249
▁통과	-17250
▁평점	-17251
강기영	-17252
고지용	-17253
김민지	-17254
말말말	-17255
타고난	-17256
회만에	-17257
...★	-17258
▁양희은	-17259
▁육아맘	-17260
▁조진웅	-17261
▁찌라시	-17262
▁할게요	-17263
▁꽁냥꽁냥	-17264
▁되찾았다	-17265
▁받아들이	-17266
▁찜	-17267
담한	-17268
마가	-17269
윤경	-17270
청와	-17271
▁거울	-17272
▁사별	-17273
▁혼수	-17274
김동현	-17275
김종진	-17276
내리는	-17277
대기업	-17278
악마의	-17279
▁김부각	-17280
▁나홀로	-17281
▁메뉴판	-17282
▁사랑법	-17283
▁이쁘게	-17284
▁재탄생	-17285
▁하면서	-17286
▁드레스로	-17287
▁에이프릴	-17288
천리마마트	-17289
▁넣	-17290
가고	-17291
균관	-17292
대부	-17293
스와	-17294
엄청	-17295
▁공갈	-17296
▁미코	-17297
▁쓴다	-17298
▁잇몸	-17299
▁진주	-17300
▁최홍	-17301
▁휩쓴	-17302
고창석	-17303
당했다	-17304
란드서	-17305
박보람	-17306
▁결혼할	-17307
▁김효진	-17308
▁동생들	-17309
▁뜻깊은	-17310
▁류혜영	-17311
▁설리가	-17312
▁소중해	-17313
▁손연재	-17314
▁첫출연	-17315
▁초상화	-17316
▁포기할	-17317
▁예비신부는	-17318
▁헛	-17319
라조	-17320
물손	-17321
재벌	-17322
치면	-17323
501	-17324
▁인상	-17325
▁조공	-17326
▁편치	-17327
물손괴	-17328
벅차고	-17329
앞머리	-17330
이진아	-17331
최은경	-17332
현충일	-17333
▁김규종	-17334
▁김남일	-17335
▁당당히	-17336
▁슈가맨	-17337
▁전화한	-17338
기소유예	-17339
김희선과	-17340
▁안했어요	-17341
노숙	-17342
▁비호	-17343
▁소망	-17344
▁욕해	-17345
▁한방	-17346
노숙자	-17347
미나와	-17348
유포자	-17349
▁108	-17350
▁남는다	-17351
▁떨리는	-17352
▁받아들	-17353
▁손호준	-17354
▁실화야	-17355
▁우리는	-17356
▁장보기	-17357
▁클라스	-17358
▁동반입대	-17359
지드래곤도	-17360
▁지켜봐달라	-17361
김풍	-17362
라서	-17363
링거	-17364
민주	-17365
사표	-17366
워야	-17367
재무	-17368
JOO	-17369
▁날려	-17370
▁떼고	-17371
▁불행	-17372
▁젊은	-17373
김경남	-17374
맥컬리	-17375
면서요	-17376
불량자	-17377
설계사	-17378
신봉선	-17379
아직도	-17380
은퇴설	-17381
이말년	-17382
출연료	-17383
팝스타	-17384
▁어깨에	-17385
▁윤여정	-17386
▁자기애	-17387
▁태명은	-17388
누군가의	-17389
미안하고	-17390
이라더니	-17391
재무설계사	-17392
▁깔	-17393
골든	-17394
돈집	-17395
둥맘	-17396
마드	-17397
미닛	-17398
욕의	-17399
으러	-17400
콜라	-17401
▁ᄏᄏ	-17402
▁갈래	-17403
▁단식	-17404
▁민서	-17405
▁성규	-17406
▁성탄	-17407
▁여권	-17408
▁예매	-17409
▁절실	-17410
▁제압	-17411
▁중순	-17412
▁펼친	-17413
복수가	-17414
친화력	-17415
▁말조심	-17416
▁의사와	-17417
▁임택근	-17418
코야키집	-17419
▁개그맨과	-17420
▁비하인드	-17421
▁굿	-17422
광주	-17423
다주	-17424
리학	-17425
밴드	-17426
사전	-17427
상주	-17428
인턴	-17429
패딩	-17430
학과	-17431
▁대물	-17432
▁송재	-17433
▁쇼크	-17434
▁포텐	-17435
▁한남	-17436
곡으로	-17437
김세정	-17438
박해수	-17439
▁박동빈	-17440
▁불사한	-17441
▁아무도	-17442
▁잡을까	-17443
▁한국계	-17444
사내연애	-17445
슈퍼인턴	-17446
한달만에	-17447
▁삼남매와	-17448
▁엄지온과	-17449
▁졸업사진	-17450
♥[	-17451
갈게	-17452
박쥐	-17453
십계	-17454
항호	-17455
황제	-17456
▁기본	-17457
▁멋져	-17458
▁밉상	-17459
▁이길	-17460
▁탈의	-17461
년여만	-17462
다둥맘	-17463
이벤트	-17464
질투의	-17465
허경환	-17466
▁777	-17467
▁이시원	-17468
▁잠시만	-17469
▁조수현	-17470
▁조작된	-17471
▁폭로로	-17472
▁놓으셨다	-17473
▁자아내는	-17474
▁기상캐스터	-17475
AG	-17476
결고	-17477
곤한	-17478
차에	-17479
행은	-17480
▁살린	-17481
▁숙인	-17482
아줌마	-17483
연결고	-17484
▁만나면	-17485
▁실패한	-17486
▁싱글맘	-17487
▁어게인	-17488
▁이유진	-17489
▁편의점	-17490
▁하승진	-17491
▁효리네	-17492
취중진담	-17493
▁길거리서	-17494
가에	-17495
가출	-17496
동화	-17497
업체	-17498
음파	-17499
의원	-17500
있고	-17501
티안	-17502
▁가라	-17503
▁숨긴	-17504
▁심야	-17505
김영찬	-17506
사망설	-17507
이종수	-17508
플렉스	-17509
▁혹독한	-17510
결혼까지	-17511
리스티안	-17512
아동학대	-17513
▁불륜으로	-17514
▁취중진담	-17515
▁태어났다	-17516
▁"""15	-17517
맞는	-17518
온마	-17519
완판	-17520
위조	-17521
트러	-17522
피멍	-17523
▁본명	-17524
▁안먹	-17525
▁코디	-17526
▁흔적	-17527
거기가	-17528
김갑수	-17529
디톡스	-17530
베트남	-17531
위하준	-17532
전보람	-17533
차화연	-17534
한다고	-17535
▁교도소	-17536
▁기태영	-17537
▁김윤경	-17538
▁부부로	-17539
▁예쁘게	-17540
▁이만기	-17541
▁재출연	-17542
▁이번에도	-17543
+★	-17544
▁머	-17545
강두	-17546
멀리	-17547
부제	-17548
▁“7	-17549
▁도플	-17550
▁잊을	-17551
▁정기	-17552
기승전	-17553
비빔면	-17554
웠지만	-17555
▁"27	-17556
▁김병옥	-17557
▁대배우	-17558
▁뒤바뀐	-17559
▁들끓는	-17560
▁만나서	-17561
▁방민아	-17562
▁살자고	-17563
▁한달째	-17564
▁행복은	-17565
▁예뻐졌어	-17566
▁자신에게	-17567
▁때문이었다	-17568
▁소름끼치는	-17569
마이크로닷이	-17570
▁떴	-17571
대도	-17572
버그	-17573
세례	-17574
위해	-17575
은성	-17576
행렬	-17577
▁기성	-17578
▁바빠	-17579
▁앙숙	-17580
▁외식	-17581
▁필연	-17582
김나희	-17583
는다고	-17584
언니의	-17585
휴식기	-17586
▁감독에	-17587
▁붙잡아	-17588
▁아세요	-17589
▁아줌마	-17590
▁알려준	-17591
▁이상윤에	-17592
▁익	-17593
마켓	-17594
빌딩	-17595
원해	-17596
▁가가	-17597
▁봤어	-17598
▁비수	-17599
김성주	-17600
꽃길만	-17601
블러썸	-17602
섹시해	-17603
야구장	-17604
최연소	-17605
▁과호흡	-17606
▁대장정	-17607
▁박은빈	-17608
▁임은경	-17609
패셔니스타	-17610
래도	-17611
명복	-17612
수경	-17613
안은	-17614
할래	-17615
허민	-17616
DNA	-17617
▁'-	-17618
▁경제	-17619
▁남의	-17620
▁놨다	-17621
▁밀당	-17622
▁배가	-17623
▁소맥	-17624
▁심한	-17625
▁크러	-17626
구본임	-17627
남보라	-17628
누나가	-17629
당신은	-17630
멜리아	-17631
몰디브	-17632
박슬기	-17633
베드신	-17634
윤미래	-17635
▁“25	-17636
▁나오고	-17637
▁나이를	-17638
▁비수기	-17639
▁사실은	-17640
프로젝트	-17641
▁노코멘트	-17642
▁만나고파	-17643
매니지먼트	-17644
소개	-17645
스몰	-17646
였네	-17647
의지	-17648
튼튼	-17649
▁과외	-17650
▁부럽	-17651
나가는	-17652
송윤아	-17653
이의정	-17654
편하게	-17655
▁떠나라	-17656
▁멋지게	-17657
▁발표에	-17658
▁엄마로	-17659
▁영화제	-17660
▁크러쉬	-17661
▁혼외자	-17662
비연예인	-17663
스몰웨딩	-17664
▁"‘99	-17665
▁바이올린	-17666
▁서바이벌	-17667
▁꼽	-17668
▁핏	-17669
금손	-17670
모드	-17671
발의	-17672
상승	-17673
▁높인	-17674
김지우	-17675
꽃미모	-17676
다시안	-17677
아내와	-17678
예상치	-17679
▁간절한	-17680
▁빠졌네	-17681
▁시간이	-17682
▁신세경	-17683
▁언제든	-17684
▁장악한	-17685
▁추사랑	-17686
▁카다시안	-17687
▁베스트커플	-17688
가포	-17689
고무	-17690
범법	-17691
일침	-17692
▁괴한	-17693
▁슬프	-17694
▁자타	-17695
▁집어	-17696
가포르	-17697
고성희	-17698
독일인	-17699
최송현	-17700
호커플	-17701
▁MCU	-17702
▁김완선	-17703
▁느낀다	-17704
▁장혜진	-17705
▁준비도	-17706
▁친구에	-17707
▁한은정	-17708
▁허양임	-17709
마마랜드	-17710
사랑해서	-17711
▁음악중심	-17712
할리웃통신	-17713
▁다이어트는	-17714
견된	-17715
방이	-17716
▁뿌듯	-17717
▁윤해	-17718
▁학원	-17719
가격리	-17720
이석훈	-17721
이연희	-17722
첫눈에	-17723
▁변수미	-17724
▁양동근	-17725
▁여자들	-17726
▁올리면	-17727
▁요정의	-17728
▁의도적	-17729
▁터지는	-17730
▁자가격리	-17731
크리에이터	-17732
MT	-17733
▁썼	-17734
간호	-17735
나잇	-17736
세련	-17737
슬빵	-17738
▁걸음	-17739
▁아닐	-17740
▁원작	-17741
▁점심	-17742
▁김민재	-17743
▁뒤집은	-17744
▁버스킹	-17745
▁분식집	-17746
▁키웠다	-17747
♥→""	-17748
▁유아인과	-17749
극강	-17750
승과	-17751
아메	-17752
▁단순	-17753
▁요트	-17754
▁음색	-17755
▁전투	-17756
▁진형	-17757
김경록	-17758
불안감	-17759
셋째도	-17760
칩니다	-17761
▁곁으로	-17762
▁남자랑	-17763
▁쉬세요	-17764
▁육감적	-17765
▁이제야	-17766
▁확인한	-17767
▁이다도시	-17768
▁해프닝으로	-17769
사각	-17770
안정	-17771
제자	-17772
치매	-17773
팔로	-17774
호은	-17775
▁식탁	-17776
▁원로	-17777
억으로	-17778
오랑캐	-17779
일만의	-17780
태명은	-17781
한재석	-17782
황민현	-17783
▁국무부	-17784
▁순례자	-17785
▁진호은	-17786
▁확실한	-17787
영화같은	-17788
▁불거졌나	-17789
신경	-17790
▁띄는	-17791
▁맞선	-17792
▁찍는	-17793
▁추진	-17794
마음이	-17795
엄친딸	-17796
이준기	-17797
한정수	-17798
▁눈물샘	-17799
▁대변신	-17800
▁사주고	-17801
▁이겨낼	-17802
▁주병진	-17803
▁팬에게	-17804
그분	-17805
승희	-17806
예의	-17807
종명	-17808
쳤을	-17809
학력	-17810
헐적	-17811
환영	-17812
▁동일	-17813
나블리	-17814
다음에	-17815
만나면	-17816
휴게소	-17817
▁간헐적	-17818
▁살아갈	-17819
▁아들은	-17820
▁잊었다	-17821
▁장예원	-17822
▁조카와	-17823
▁챙기는	-17824
▁염정아와	-17825
...""10	-17826
경석	-17827
구이	-17828
대립	-17829
릉동	-17830
민이	-17831
연가	-17832
웨그	-17833
팅게	-17834
▁빌린	-17835
나보다	-17836
만이라	-17837
새신부	-17838
엄기준	-17839
오늘은	-17840
채곱창	-17841
행사의	-17842
호구의	-17843
홍은희	-17844
▁경쟁률	-17845
▁공릉동	-17846
건나블리	-17847
▁"""8	-17848
▁개인방송	-17849
▁매니저와	-17850
▁베르나르	-17851
도장	-17852
빼박	-17853
▁견디	-17854
▁놀러	-17855
가슴이	-17856
라이언	-17857
학부모	-17858
▁가수로	-17859
▁예뻐져	-17860
▁처가댁	-17861
▁힘으로	-17862
▁""11	-17863
▁행동으로	-17864
먹은	-17865
보급	-17866
볼륨	-17867
살짝	-17868
왕색	-17869
외식	-17870
이서	-17871
▁광어	-17872
▁만해	-17873
고수정	-17874
년차의	-17875
신장이	-17876
최준용	-17877
패왕색	-17878
▁베트남	-17879
▁성내동	-17880
▁예뻐서	-17881
▁유성주	-17882
▁조용원	-17883
▁캠퍼스	-17884
▁하이틴	-17885
신장이식	-17886
▁꺼내놓은	-17887
▁치어리더	-17888
▁고맙습니다	-17889
마미	-17890
배기	-17891
악연	-17892
저와	-17893
점프	-17894
큰손	-17895
▁꼬꼬	-17896
▁뭐야	-17897
▁이거	-17898
닮은꼴	-17899
양세찬	-17900
어머나	-17901
이기우	-17902
인형의	-17903
▁만나길	-17904
▁왕빛나	-17905
▁재민이	-17906
▁기대되는	-17907
▁이상윤과	-17908
▁괌	-17909
복숭	-17910
서아	-17911
수줍	-17912
현이	-17913
▁넘나	-17914
▁수트	-17915
개월된	-17916
김경호	-17917
마미아	-17918
배기성	-17919
복숭아	-17920
오르는	-17921
▁날씬한	-17922
▁되나요	-17923
▁물고기	-17924
▁부동의	-17925
▁순둥이	-17926
▁전에도	-17927
▁한국의	-17928
▁내려놓고	-17929
▁박명수의	-17930
▁서프라이즈	-17931
브레이브걸스	-17932
겠지	-17933
들짝	-17934
▁끊어	-17935
▁순백	-17936
▁자금	-17937
김태훈	-17938
노래방	-17939
유발자	-17940
이원일	-17941
이유리	-17942
주년에	-17943
▁나보다	-17944
▁새로워	-17945
▁정대세	-17946
▁최재훈	-17947
▁펼쳐진	-17948
오랜만에	-17949
▁함께했다	-17950
▁헤어스타일	-17951
▁샛	-17952
블링	-17953
▁빚은	-17954
▁서둘	-17955
그래도	-17956
김무열	-17957
설명서	-17958
▁맛있어	-17959
▁매덕스	-17960
▁박시은	-17961
▁발표한	-17962
▁외모에	-17963
▁유민주	-17964
▁풋풋한	-17965
▁헤어진	-17966
건강회복	-17967
결혼하고	-17968
아비가일	-17969
최초공개	-17970
탈세의혹	-17971
▁""28	-17972
▁싱글대디	-17973
▁인테리어	-17974
▁쪼맨한게	-17975
청룡영화상	-17976
주말사용설명서	-17977
관객	-17978
엄지	-17979
탈한	-17980
▁나섰	-17981
▁말렉	-17982
▁묻어	-17983
▁발레	-17984
▁소행	-17985
▁출장	-17986
전성우	-17987
코패스	-17988
]""3	-17989
▁노지훈	-17990
▁닮았나	-17991
▁사람들이	-17992
▁홍종현에	-17993
경읍	-17994
남과	-17995
똑똑	-17996
쉽지	-17997
점수	-17998
할것	-17999
향기	-18000
남경읍	-18001
시기는	-18002
아빠의	-18003
▁밝혀져	-18004
▁즐거워	-18005
▁솔직당당	-18006
▁지라시에	-18007
다들	-18008
대구	-18009
호민	-18010
▁갱신	-18011
가족이	-18012
고우리	-18013
딸이면	-18014
볼빨간	-18015
소라게	-18016
총출동	-18017
▁앞으로	-18018
▁유기농	-18019
▁전면전	-18020
▁주호민	-18021
▁행사비	-18022
만으로도	-18023
는지	-18024
신우	-18025
▁스냅	-18026
▁얽힌	-18027
▁걸리버	-18028
▁그려준	-18029
▁껴안고	-18030
▁사라져	-18031
▁새댁의	-18032
▁이별에	-18033
▁이진아	-18034
▁크리샤	-18035
▁감정으로	-18036
▁이두희와	-18037
이병헌까지	-18038
신이	-18039
죄로	-18040
주에	-18041
▁격렬	-18042
▁몸짱	-18043
▁봉착	-18044
▁서준	-18045
▁얻어	-18046
▁위상	-18047
▁이설	-18048
권태기	-18049
남친과	-18050
주병진	-18051
▁갱년기	-18052
▁굿바이	-18053
▁무너져	-18054
▁밝히자	-18055
▁어려울	-18056
▁유치원	-18057
▁이은희	-18058
▁화이트	-18059
브리트니	-18060
▁한마디에	-18061
동막골소녀	-18062
▁짤	-18063
런치	-18064
시골	-18065
진형	-18066
쿠버	-18067
▁색출	-18068
▁악녀	-18069
▁직장	-18070
▁환호	-18071
얼굴이	-18072
..24	-18073
▁결정적	-18074
▁교제중	-18075
▁박재범	-18076
▁브런치	-18077
▁오윤아	-18078
만원으로	-18079
▁"'11	-18080
▁단톡방서	-18081
▁산부인과	-18082
♥”...	-18083
쿠버다이빙	-18084
▁모태	-18085
▁상속	-18086
▁상자	-18087
▁하던	-18088
판도라	-18089
황찬호	-18090
▁나은이	-18091
▁등장한	-18092
▁사무실	-18093
▁실수에	-18094
동방불패	-18095
▁매력으로	-18096
▁사랑하게	-18097
가진	-18098
귀신	-18099
작곡	-18100
중인	-18101
▁예전	-18102
▁현영	-18103
김진우	-18104
내뒤테	-18105
인생이	-18106
패리스	-18107
▁괴롭힘	-18108
▁스타의	-18109
▁진심에	-18110
▁감량했다	-18111
▁루머까지	-18112
▁작별인사	-18113
▁응원합니다	-18114
꽈당	-18115
두렵	-18116
막을	-18117
옥찐	-18118
이에	-18119
▁담아	-18120
▁등원	-18121
▁부천	-18122
▁아까	-18123
▁충고	-18124
▁그래서	-18125
▁담도암	-18126
▁떨렸다	-18127
▁아닌가	-18128
▁왕쓰총	-18129
▁형제상	-18130
▁떡볶이집	-18131
▁허리라인	-18132
..""10	-18133
▁쪄	-18134
붓한	-18135
중독	-18136
형부	-18137
▁마더	-18138
▁보류	-18139
▁펀딩	-18140
김정근	-18141
씨스타	-18142
지상파	-18143
▁250	-18144
▁대표님	-18145
▁오붓한	-18146
▁진심의	-18147
▁폭로자	-18148
▁하용수	-18149
작별인사	-18150
지병으로	-18151
▁아들들과	-18152
▁사기혐의로	-18153
fe	-18154
만을	-18155
열두	-18156
일훈	-18157
혹사	-18158
ife	-18159
늦둥이	-18160
때마다	-18161
유백이	-18162
주머니	-18163
▁맺어진	-18164
학교폭력	-18165
▁보자마자	-18166
결혼기념일	-18167
톱스타유백이	-18168
-‘	-18169
▁빡	-18170
러움	-18171
무용	-18172
허규	-18173
▁백수	-18174
▁숨겨	-18175
▁연아	-18176
▁저주	-18177
김남희	-18178
▁신고은	-18179
▁유태오	-18180
▁장정윤	-18181
▁중국발	-18182
▁진재영	-18183
▁소화하는	-18184
재윤	-18185
희열	-18186
▁LJ	-18187
▁배꼽	-18188
▁쓰는	-18189
천명훈	-18190
했어도	-18191
▁눈맞춤	-18192
▁보내고	-18193
▁안영미	-18194
▁앞자리	-18195
▁하세요	-18196
▁ᄏᄏᄏᄏ	-18197
▁데이트에	-18198
우울증으로	-18199
괜히	-18200
▁아윤	-18201
▁긍정적	-18202
▁배꼽티	-18203
▁정혜영	-18204
귀염	-18205
긍정	-18206
반갑	-18207
었을	-18208
▁가은	-18209
▁배구	-18210
▁배변	-18211
▁스승	-18212
가는날	-18213
▁않았던	-18214
▁있어서	-18215
배려심에	-18216
화기애애	-18217
▁100'	-18218
▁셀프웨딩	-18219
▁배변주머니	-18220
가서	-18221
분방	-18222
윗감	-18223
필독	-18224
▁돼지	-18225
▁출시	-18226
나만의	-18227
민지영	-18228
▁누군가	-18229
▁문자에	-18230
▁부었다	-18231
▁한송이	-18232
▁홍일권	-18233
▁자유분방	-18234
년이	-18235
소떡	-18236
우돌	-18237
졸리	-18238
▁선천	-18239
▁있길	-18240
▁출생	-18241
▁팬츠	-18242
것들이	-18243
우리도	-18244
이토록	-18245
차하길	-18246
충우돌	-18247
▁알렉스	-18248
미쓰에이	-18249
한효주와	-18250
▁몸매관리	-18251
▁비키니로	-18252
▁젤	-18253
약국	-18254
’→‘	-18255
▁나날	-18256
▁야경	-18257
▁오면	-18258
▁이브	-18259
미란다	-18260
섹시한	-18261
유희열	-18262
탄탄한	-18263
▁고성민	-18264
▁전인화	-18265
▁죽음의	-18266
▁하는데	-18267
스케치북	-18268
채널예약	-18269
▁미녀들의	-18270
▁클래스가	-18271
합동	-18272
▁디너	-18273
▁미쓰	-18274
▁찐찐	-18275
나들이	-18276
▁"'6	-18277
▁나이가	-18278
▁뇌종양	-18279
▁느끼는	-18280
▁소재로	-18281
▁실화임	-18282
▁고등학교	-18283
합성	-18284
▁글쎄	-18285
▁꿈에	-18286
▁날아	-18287
▁수란	-18288
▁황후	-18289
으려고	-18290
▁멋지다	-18291
▁부부와	-18292
▁뽐내며	-18293
▁유방암	-18294
▁쿨하게	-18295
는다더니	-18296
▁임신까지	-18297
OVE	-18298
▁마감	-18299
▁막장	-18300
▁육박	-18301
애쉬튼	-18302
▁레이디	-18303
▁박형수	-18304
▁LOVE	-18305
▁김선아와	-18306
▁돋보이는	-18307
▁봄나들이	-18308
섹남	-18309
을때	-18310
자나	-18311
→14	-18312
▁구조	-18313
▁급여	-18314
▁삼가	-18315
노지훈	-18316
▁어차피	-18317
▁이미담	-18318
▁정영주	-18319
▁추성훈	-18320
우울하고	-18321
▁""'♥	-18322
▁구조요청	-18323
▁못하겠다	-18324
▁카더가든	-18325
▁예비신부와	-18326
계수	-18327
기수	-18328
보게	-18329
▁거다	-18330
▁늙은	-18331
▁저택	-18332
겠다고	-18333
그리운	-18334
변기수	-18335
솔직한	-18336
▁떠올린	-18337
▁모습이	-18338
▁미공개	-18339
▁연기가	-18340
▁한보름	-18341
▁돌아오길	-18342
▁굳이	-18343
▁베컴	-18344
▁봐주	-18345
▁준우	-18346
김용건	-18347
월계수	-18348
임재욱	-18349
환으로	-18350
▁느낌이	-18351
▁문제가	-18352
▁윤민수	-18353
▁확실히	-18354
고개	-18355
▁가야	-18356
장항준	-18357
""('	-18358
▁김미려	-18359
▁뉴욕의	-18360
▁베드신	-18361
▁욕하는	-18362
▁이유애린	-18363
▁열애설까지	-18364
▁멍	-18365
국사	-18366
만히	-18367
연쇄	-18368
유치	-18369
▁손녀	-18370
▁애월	-18371
▁재능	-18372
▁정한	-18373
▁컸추	-18374
▁코치	-18375
서지승	-18376
았으면	-18377
인으로	-18378
▁가세요	-18379
▁꾸러기	-18380
▁이선정	-18381
▁탤런트	-18382
▁베이비샤워	-18383
2)	-18384
6]	-18385
릉도	-18386
붉은	-18387
전교	-18388
▁눈이	-18389
▁라운	-18390
▁양가	-18391
굳건한	-18392
귀요미	-18393
▁맞나요	-18394
▁여자도	-18395
▁울릉도	-18396
▁여배우의	-18397
▁지는거다	-18398
▁한국에서	-18399
르기	-18400
▁같네	-18401
▁하필	-18402
국내외	-18403
머리를	-18404
지소연	-18405
▁더럽게	-18406
▁라운딩	-18407
▁어디서	-18408
▁인생샷	-18409
▁좋아서	-18410
▁히어로	-18411
제주도서	-18412
국이	-18413
나고	-18414
보정	-18415
었고	-18416
으신	-18417
페미	-18418
▁그저	-18419
▁올인	-18420
▁하냐	-18421
▁하시	-18422
중학교	-18423
형적인	-18424
▁연기는	-18425
▁일부러	-18426
보니허니	-18427
▁아나운서에	-18428
그레	-18429
무명	-18430
있을	-18431
▁도둑	-18432
▁듣고	-18433
▁등판	-18434
▁이리	-18435
들끼리	-18436
이라서	-18437
정태우	-18438
▁누군데	-18439
▁받아야	-18440
▁윤소희	-18441
▁정태리	-18442
▁언제까지	-18443
▁최초공개	-18444
갖고	-18445
백산	-18446
판정	-18447
▁뻔뻔	-18448
▁아재	-18449
▁이력	-18450
▁젝키	-18451
▁팬이	-18452
김윤정	-18453
오정욱	-18454
▁걱정돼	-18455
▁머리채	-18456
▁방송은	-18457
▁잘못은	-18458
▁탄탄한	-18459
▁남매케미	-18460
▁사랑해서	-18461
▁셀프디스	-18462
▁났	-18463
▁쉴	-18464
달째	-18465
답게	-18466
두려	-18467
려서	-18468
먹을	-18469
▁"’	-18470
▁분이	-18471
▁평범	-18472
류현진	-18473
립니다	-18474
▁같아요	-18475
▁물들인	-18476
▁않을까	-18477
▁여행서	-18478
▁있어도	-18479
▁지치지	-18480
▁해맑은	-18481
▁구혜선이	-18482
▁소속사가	-18483
▁아무것도	-18484
▁응원한다	-18485
▁뜯	-18486
경택	-18487
와와	-18488
▁개뿔	-18489
▁높은	-18490
▁당연	-18491
▁무식	-18492
▁알지	-18493
▁연좌	-18494
▁온갖	-18495
▁죄가	-18496
거리는	-18497
년열애	-18498
뇌종양	-18499
이혜경	-18500
▁거기서	-18501
▁누나와	-18502
▁실력자	-18503
▁안좋은	-18504
▁일인가	-18505
▁덮으려고	-18506
▁하지말고	-18507
▁l	-18508
가야	-18509
관이	-18510
들면	-18511
부럽	-18512
예전	-18513
▁미워	-18514
▁성지	-18515
▁시비	-18516
▁왕따	-18517
▁유난	-18518
▁지루	-18519
습니까	-18520
▁당신이	-18521
▁불편해	-18522
▁빚더미	-18523
▁역겨워	-18524
▁이후로	-18525
▁한번도	-18526
보고싶어	-18527
▁예쁘네요	-18528
▁"""29	-18529
▁x	-18530
▁놔	-18531
▁히	-18532
고도	-18533
되게	-18534
리시	-18535
상품	-18536
필요	-18537
▁82	-18538
▁근거	-18539
▁매우	-18540
▁보게	-18541
▁살찐	-18542
▁세탁	-18543
▁소시	-18544
▁싸우	-18545
▁악마	-18546
▁차별	-18547
▁하게	-18548
▁할때	-18549
▁해줘	-18550
고있는	-18551
년동안	-18552
보겠다	-18553
상품화	-18554
졌으면	-18555
페셔널	-18556
▁기사는	-18557
▁김미화	-18558
▁나가는	-18559
▁댓글은	-18560
▁더이상	-18561
▁분명히	-18562
▁사투리	-18563
▁웃기고	-18564
▁유명한	-18565
▁전국민	-18566
▁연예인병	-18567
▁웨딩데이	-18568
▁유재석은	-18569
▁폭풍먹방	-18570
▁프로페셔널	-18571
빅픽처패밀리	-18572
▁p	-18573
검색	-18574
권이	-18575
남아	-18576
르게	-18577
바뀌	-18578
없게	-18579
탈전	-18580
▁감당	-18581
▁그의	-18582
▁기어	-18583
▁매장	-18584
▁미쳐	-18585
▁볼수	-18586
▁소재	-18587
▁시발	-18588
▁자고	-18589
▁트집	-18590
▁팬도	-18591
▁현지	-18592
▁후에	-18593
▁흘러	-18594
갔으면	-18595
무조건	-18596
송창의	-18597
시키지	-18598
았어야	-18599
진재영	-18600
하거나	-18601
▁갑니다	-18602
▁내용은	-18603
▁논란이	-18604
▁대표의	-18605
▁돌아이	-18606
▁마음의	-18607
▁문제는	-18608
▁방송이	-18609
▁자식이	-18610
▁쟁탈전	-18611
▁하객룩	-18612
▁해야할	-18613
▁헤어졌	-18614
혼인신고	-18615
▁들어가면	-18616
▁무한도전	-18617
▁자연스럽게	-18618
▁쉐	-18619
▁푼	-18620
구멍	-18621
돌려	-18622
먹는	-18623
며칠	-18624
못한	-18625
번은	-18626
분량	-18627
송연	-18628
아닐	-18629
어이	-18630
웠나	-18631
질에	-18632
태명	-18633
▁가운	-18634
▁것을	-18635
▁구경	-18636
▁남양	-18637
▁낳을	-18638
▁내고	-18639
▁드리	-18640
▁따져	-18641
▁딸도	-18642
▁매달	-18643
▁불렀	-18644
▁블핑	-18645
▁성별	-18646
▁소용	-18647
▁신입	-18648
▁쓰면	-18649
▁우롱	-18650
▁웃길	-18651
▁종교	-18652
▁찌질	-18653
▁춤추	-18654
▁하길	-18655
▁하도	-18656
▁해줄	-18657
▁히트	-18658
배우는	-18659
비호감	-18660
사람과	-18661
실제로	-18662
이지애	-18663
인간들	-18664
정시아	-18665
]""7	-18666
▁개무시	-18667
▁그때도	-18668
▁대상은	-18669
▁대중은	-18670
▁많지만	-18671
▁몸매도	-18672
▁몸매의	-18673
▁무관심	-18674
▁미소로	-18675
▁받아서	-18676
▁배우의	-18677
▁어쩌다	-18678
▁없잖아	-18679
▁연좌제	-18680
▁예민한	-18681
▁이경진	-18682
▁정선희	-18683
▁중국인	-18684
▁터트린	-18685
비즈니스	-18686
▁결혼해라	-18687
▁동방신기	-18688
▁미국으로	-18689
▁예능으로	-18690
▁아이즈원은	-18691
ed	-18692
on	-18693
▁낼	-18694
▁룸	-18695
▁뻥	-18696
▁쯔	-18697
가림	-18698
갔을	-18699
거의	-18700
게이	-18701
경원	-18702
국자	-18703
들여	-18704
르네	-18705
리길	-18706
매장	-18707
모를	-18708
발에	-18709
백만	-18710
본지	-18711
스가	-18712
아마	-18713
유업	-18714
을뿐	-18715
잃은	-18716
자도	-18717
전한	-18718
졌을	-18719
터져	-18720
형이	-18721
▁가기	-18722
▁견제	-18723
▁고친	-18724
▁국적	-18725
▁나네	-18726
▁둘이	-18727
▁뒤지	-18728
▁들여	-18729
▁리메	-18730
▁막을	-18731
▁말해	-18732
▁반가	-18733
▁방향	-18734
▁볼까	-18735
▁신체	-18736
▁썩은	-18737
▁안경	-18738
▁옷을	-18739
▁위안	-18740
▁잃을	-18741
▁입이	-18742
▁잡혀	-18743
▁점수	-18744
▁정의	-18745
▁제품	-18746
▁주민	-18747
▁진작	-18748
▁형이	-18749
▁후손	-18750
나더라	-18751
라고요	-18752
러워서	-18753
식간에	-18754
아니면	-18755
에게는	-18756
연기는	-18757
으로서	-18758
이나요	-18759
인스타	-18760
정하게	-18761
하고만	-18762
해보니	-18763
해지고	-18764
했구나	-18765
▁가져라	-18766
▁걱정마	-18767
▁김새롬	-18768
▁끝나면	-18769
▁대국민	-18770
▁데리고	-18771
▁미모가	-18772
▁미쳤다	-18773
▁볼수록	-18774
▁사과는	-18775
▁사람의	-18776
▁생각할	-18777
▁승리도	-18778
▁시대를	-18779
▁어울릴	-18780
▁엄마는	-18781
▁영원한	-18782
▁자동차	-18783
▁잘되길	-18784
▁장애인	-18785
▁제시카	-18786
▁죽어도	-18787
▁중요해	-18788
▁즐기는	-18789
▁증세로	-18790
▁초밥집	-18791
▁초콜릿	-18792
▁한가인	-18793
▁훌륭한	-18794
▁힘내요	-18795
당당하게	-18796
악플러들	-18797
어주세요	-18798
하시네요	-18799
▁그만하자	-18800
▁돌아간다	-18801
▁리메이크	-18802
▁비공개로	-18803
▁사람이다	-18804
▁소름돋는	-18805
▁않았으면	-18806
▁야구선수	-18807
▁자격지심	-18808
▁자유롭게	-18809
▁책임지고	-18810
."	-18811
es	-18812
nt	-18813
▁꼼	-18814
▁꽝	-18815
▁츄	-18816
▁킴	-18817
▁팩	-18818
가기	-18819
간절	-18820
감성	-18821
교회	-18822
급한	-18823
나길	-18824
날씬	-18825
녀와	-18826
년은	-18827
달이	-18828
동물	-18829
돼요	-18830
들로	-18831
롭고	-18832
박탈	-18833
복수	-18834
봉투	-18835
부작	-18836
빚을	-18837
성별	-18838
수고	-18839
수에	-18840
술사	-18841
스럼	-18842
시가	-18843
씨를	-18844
않아	-18845
어치	-18846
연이	-18847
우혁	-18848
웠지	-18849
은혁	-18850
있냐	-18851
잡기	-18852
전투	-18853
정치	-18854
줘도	-18855
지대	-18856
지디	-18857
지컬	-18858
추고	-18859
파악	-18860
호강	-18861
화점	-18862
훈은	-18863
?!!	-18864
~30	-18865
▁3~	-18866
▁거세	-18867
▁계신	-18868
▁고래	-18869
▁고아	-18870
▁광수	-18871
▁괴물	-18872
▁구멍	-18873
▁구해	-18874
▁글이	-18875
▁나사	-18876
▁나코	-18877
▁남았	-18878
▁놓을	-18879
▁도가	-18880
▁동물	-18881
▁들은	-18882
▁따른	-18883
▁뛰는	-18884
▁매진	-18885
▁목사	-18886
▁미용	-18887
▁발로	-18888
▁방영	-18889
▁버린	-18890
▁버릴	-18891
▁변질	-18892
▁불려	-18893
▁붙여	-18894
▁비켜	-18895
▁사원	-18896
▁생에	-18897
▁서빙	-18898
▁소스	-18899
▁숏컷	-18900
▁쉬운	-18901
▁슬기	-18902
▁시골	-18903
▁안락	-18904
▁압도	-18905
▁압승	-18906
▁어장	-18907
▁엄친	-18908
▁없게	-18909
▁열외	-18910
▁였다	-18911
▁인민	-18912
▁일로	-18913
▁입을	-18914
▁자는	-18915
▁죄는	-18916
▁죄야	-18917
▁참아	-18918
▁철저	-18919
▁피는	-18920
기사로	-18921
김지영	-18922
내인생	-18923
냐고요	-18924
드러운	-18925
로서로	-18926
배우들	-18927
버렸다	-18928
브랜드	-18929
생각만	-18930
셨어요	-18931
없었다	-18932
왔어요	-18933
이었어	-18934
전라도	-18935
줄줄이	-18936
했냐고	-18937
▁20%	-18938
▁강원도	-18939
▁국민이	-18940
▁기생충	-18941
▁김동희	-18942
▁너희들	-18943
▁논란은	-18944
▁다양한	-18945
▁답답한	-18946
▁대중들	-18947
▁댓글로	-18948
▁돌리는	-18949
▁동백이	-18950
▁들어요	-18951
▁만나지	-18952
▁망치지	-18953
▁망했다	-18954
▁먹는다	-18955
▁무엇이	-18956
▁미모는	-18957
▁백화점	-18958
▁보라고	-18959
▁보이네	-18960
▁사과도	-18961
▁사람만	-18962
▁성숙한	-18963
▁신혼의	-18964
▁실력은	-18965
▁아깝지	-18966
▁안난다	-18967
▁안돼요	-18968
▁안되면	-18969
▁알아본	-18970
▁억울해	-18971
▁언니들	-18972
▁얼굴과	-18973
▁없도록	-18974
▁여신이	-18975
▁연애할	-18976
▁옆에서	-18977
▁올리고	-18978
▁용서를	-18979
▁위안부	-18980
▁이루어	-18981
▁이혼할	-18982
▁인터폴	-18983
▁있구나	-18984
▁있다면	-18985
▁잘생김	-18986
▁장영란	-18987
▁장우혁	-18988
▁전문가	-18989
▁최대한	-18990
▁최승호	-18991
▁축의금	-18992
▁탕수육	-18993
▁트루디	-18994
▁피지컬	-18995
▁피했다	-18996
▁희대의	-18997
▁히트곡	-18998
잘생겨서	-18999
차예련이	-19000
▁건드리지	-19001
▁결혼하는	-19002
▁귀엽다고	-19003
▁기다리는	-19004
▁마지막은	-19005
▁박한별도	-19006
▁부끄럽지	-19007
▁삼시세끼	-19008
▁손해배상	-19009
▁아무일도	-19010
▁안했으면	-19011
▁여배우는	-19012
▁열린결말	-19013
▁이번에는	-19014
▁이야기도	-19015
▁이혼까지	-19016
▁피해자는	-19017
▁화기애애	-19018
▁결혼식장에	-19019
▁말아주세요	-19020
▁음주운전은	-19021
->	-19022
.'	-19023
46	-19024
▁란	-19025
▁엽	-19026
▁잣	-19027
각오	-19028
갈이	-19029
감한	-19030
강자	-19031
거부	-19032
거절	-19033
게릭	-19034
경제	-19035
고의	-19036
관상	-19037
권도	-19038
극중	-19039
기엔	-19040
날도	-19041
낳고	-19042
다빈	-19043
다수	-19044
단지	-19045
달면	-19046
당함	-19047
덮어	-19048
두기	-19049
드레	-19050
듣지	-19051
[...]
